{
  "version": "1.0",
  "truncation": null,
  "padding": null,
  "added_tokens": [
    {
      "id": 0,
      "content": "<pad>",
      "single_word": false,
      "lstrip": false,
      "rstrip": false,
      "normalized": false,
      "special": true
    },
    {
      "id": 1,
      "content": "<unk>",
      "single_word": false,
      "lstrip": false,
      "rstrip": false,
      "normalized": false,
      "special": true
    },
    {
      "id": 2,
      "content": "<bos>",
      "single_word": false,
      "lstrip": false,
      "rstrip": false,
      "normalized": false,
      "special": true
    },
    {
      "id": 3,
      "content": "<eos>",
      "single_word": false,
      "lstrip": false,
      "rstrip": false,
      "normalized": false,
      "special": true
    },
    {
      "id": 4,
      "content": "<mask>",
      "single_word": false,
      "lstrip": false,
      "rstrip": false,
      "normalized": false,
      "special": true
    }
  ],
  "normalizer": null,
  "pre_tokenizer": {
    "type": "ByteLevel",
    "add_prefix_space": false,
    "trim_offsets": true,
    "use_regex": true
  },
  "post_processor": null,
  "decoder": {
    "type": "ByteLevel",
    "add_prefix_space": true,
    "trim_offsets": true,
    "use_regex": true
  },
  "model": {
    "type": "BPE",
    "dropout": null,
    "unk_token": "<unk>",
    "continuing_subword_prefix": null,
    "end_of_word_suffix": null,
    "fuse_unk": false,
    "byte_fallback": false,
    "ignore_merges": false,
    "vocab": {
      "<pad>": 0,
      "<unk>": 1,
      "<bos>": 2,
      "<eos>": 3,
      "<mask>": 4,
      "!": 5,
      "\"": 6,
      "#": 7,
      "$": 8,
      "%": 9,
      "&": 10,
      "'": 11,
      "(": 12,
      ")": 13,
      "*": 14,
      "+": 15,
      ",": 16,
      "-": 17,
      ".": 18,
      "/": 19,
      "0": 20,
      "1": 21,
      "2": 22,
      "3": 23,
      "4": 24,
      "5": 25,
      "6": 26,
      "7": 27,
      "8": 28,
      "9": 29,
      ":": 30,
      ";": 31,
      "<": 32,
      "=": 33,
      ">": 34,
      "?": 35,
      "@": 36,
      "A": 37,
      "B": 38,
      "C": 39,
      "D": 40,
      "E": 41,
      "F": 42,
      "G": 43,
      "H": 44,
      "I": 45,
      "J": 46,
      "K": 47,
      "L": 48,
      "M": 49,
      "N": 50,
      "O": 51,
      "P": 52,
      "Q": 53,
      "R": 54,
      "S": 55,
      "T": 56,
      "U": 57,
      "V": 58,
      "W": 59,
      "X": 60,
      "Y": 61,
      "Z": 62,
      "[": 63,
      "\\": 64,
      "]": 65,
      "^": 66,
      "_": 67,
      "`": 68,
      "a": 69,
      "b": 70,
      "c": 71,
      "d": 72,
      "e": 73,
      "f": 74,
      "g": 75,
      "h": 76,
      "i": 77,
      "j": 78,
      "k": 79,
      "l": 80,
      "m": 81,
      "n": 82,
      "o": 83,
      "p": 84,
      "q": 85,
      "r": 86,
      "s": 87,
      "t": 88,
      "u": 89,
      "v": 90,
      "w": 91,
      "x": 92,
      "y": 93,
      "z": 94,
      "{": 95,
      "|": 96,
      "}": 97,
      "~": 98,
      "¡": 99,
      "¢": 100,
      "£": 101,
      "¤": 102,
      "¥": 103,
      "¦": 104,
      "§": 105,
      "¨": 106,
      "©": 107,
      "ª": 108,
      "«": 109,
      "¬": 110,
      "®": 111,
      "¯": 112,
      "°": 113,
      "±": 114,
      "²": 115,
      "³": 116,
      "´": 117,
      "µ": 118,
      "¶": 119,
      "·": 120,
      "¸": 121,
      "¹": 122,
      "º": 123,
      "»": 124,
      "¼": 125,
      "½": 126,
      "¾": 127,
      "¿": 128,
      "Â": 129,
      "Ã": 130,
      "Ä": 131,
      "Å": 132,
      "Ê": 133,
      "Ë": 134,
      "Î": 135,
      "Ï": 136,
      "Ð": 137,
      "Ñ": 138,
      "Ù": 139,
      "á": 140,
      "â": 141,
      "ã": 142,
      "ä": 143,
      "å": 144,
      "æ": 145,
      "è": 146,
      "ê": 147,
      "ë": 148,
      "ì": 149,
      "í": 150,
      "ï": 151,
      "ð": 152,
      "ó": 153,
      "ĉ": 154,
      "Ċ": 155,
      "č": 156,
      "Ġ": 157,
      "Ģ": 158,
      "ģ": 159,
      "Ĥ": 160,
      "ĥ": 161,
      "Ħ": 162,
      "ħ": 163,
      "Ĩ": 164,
      "ĩ": 165,
      "Ī": 166,
      "ī": 167,
      "Ĭ": 168,
      "ĭ": 169,
      "Į": 170,
      "į": 171,
      "İ": 172,
      "ı": 173,
      "Ĳ": 174,
      "ĳ": 175,
      "Ĵ": 176,
      "ĵ": 177,
      "Ķ": 178,
      "ķ": 179,
      "ĸ": 180,
      "Ĺ": 181,
      "ĺ": 182,
      "Ļ": 183,
      "ļ": 184,
      "Ľ": 185,
      "ľ": 186,
      "Ŀ": 187,
      "ŀ": 188,
      "Ł": 189,
      "ł": 190,
      "Ń": 191,
      "Ġt": 192,
      "in": 193,
      "Ġa": 194,
      "he": 195,
      "re": 196,
      "on": 197,
      "er": 198,
      "Ġs": 199,
      "Ġthe": 200,
      "an": 201,
      "at": 202,
      "or": 203,
      "Ġw": 204,
      "en": 205,
      "it": 206,
      "Ġc": 207,
      "es": 208,
      "ou": 209,
      "Ġb": 210,
      "ing": 211,
      "Ġp": 212,
      "Ġf": 213,
      "Ġo": 214,
      "ar": 215,
      "al": 216,
      "is": 217,
      "ed": 218,
      "Ġin": 219,
      "Ġm": 220,
      "Ġan": 221,
      "Ġto": 222,
      "om": 223,
      "Ġof": 224,
      "Ġd": 225,
      "Ġand": 226,
      "ion": 227,
      "Ġh": 228,
      "as": 229,
      "ic": 230,
      "ll": 231,
      "Ġth": 232,
      "Ġl": 233,
      "ent": 234,
      "âĢ": 235,
      "Ġre": 236,
      "et": 237,
      "st": 238,
      "ro": 239,
      "Ġe": 240,
      "id": 241,
      "Ġn": 242,
      "ve": 243,
      "le": 244,
      "ĠI": 245,
      "Ġg": 246,
      "ly": 247,
      "ut": 248,
      "Ġy": 249,
      "ec": 250,
      "ĠS": 251,
      "Ġon": 252,
      "ĠT": 253,
      "ĠC": 254,
      "ay": 255,
      "Ġfor": 256,
      "ad": 257,
      "ĠA": 258,
      "Ġis": 259,
      "ot": 260,
      "ers": 261,
      "ld": 262,
      "Ġst": 263,
      "ow": 264,
      "ac": 265,
      "Ġit": 266,
      "ill": 267,
      "Ġbe": 268,
      "Ġ2": 269,
      "ig": 270,
      "ur": 271,
      "ĠĊ": 272,
      "im": 273,
      "Ġthat": 274,
      "ver": 275,
      "ĠM": 276,
      "ation": 277,
      "us": 278,
      "Ġyou": 279,
      "un": 280,
      "ce": 281,
      "âĢĻ": 282,
      "ment": 283,
      "ĠB": 284,
      "est": 285,
      "Ġcom": 286,
      "am": 287,
      "ĠP": 288,
      "ir": 289,
      "ith": 290,
      "Ġas": 291,
      "ter": 292,
      "ĠR": 293,
      "ate": 294,
      "il": 295,
      "Ġ1": 296,
      "th": 297,
      "ĠF": 298,
      "Ġ(": 299,
      "Ġwith": 300,
      "Ġwh": 301,
      "Ġwe": 302,
      "se": 303,
      "Ġr": 304,
      "Ġpro": 305,
      "ĠE": 306,
      "Ġ20": 307,
      "ol": 308,
      "ch": 309,
      "her": 310,
      "ke": 311,
      "ore": 312,
      "ge": 313,
      "out": 314,
      "ort": 315,
      "ĠD": 316,
      "Ġat": 317,
      "Ġcon": 318,
      "ct": 319,
      "ear": 320,
      "Ġby": 321,
      "if": 322,
      "Ġex": 323,
      "our": 324,
      "Ġha": 325,
      "Ġare": 326,
      "Ġhe": 327,
      "oun": 328,
      "Ġsa": 329,
      "res": 330,
      "ies": 331,
      "ul": 332,
      "Ġsh": 333,
      "pp": 334,
      "Ġde": 335,
      "ew": 336,
      "ĠW": 337,
      "ĠN": 338,
      "qu": 339,
      "Ġ201": 340,
      "um": 341,
      "ain": 342,
      "ess": 343,
      "ust": 344,
      "Ġfr": 345,
      "ĠU": 346,
      "oc": 347,
      "ive": 348,
      "Ġcomp": 349,
      "op": 350,
      "00": 351,
      "and": 352,
      "ould": 353,
      "ĠG": 354,
      "oo": 355,
      "ĠH": 356,
      "Ġsaid": 357,
      "iv": 358,
      "ts": 359,
      "Ġ$": 360,
      "Ġhave": 361,
      "'s": 362,
      "ial": 363,
      "os": 364,
      "Ġtr": 365,
      "ab": 366,
      "end": 367,
      "Ġwas": 368,
      "Ġor": 369,
      "Ġnot": 370,
      "em": 371,
      "Ġfrom": 372,
      "Ġwill": 373,
      "ity": 374,
      "Ġv": 375,
      "igh": 376,
      "up": 377,
      "art": 378,
      "ĠL": 379,
      "âĢĿ": 380,
      "ĠJ": 381,
      "ect": 382,
      "ome": 383,
      "ĠO": 384,
      "âĢľ": 385,
      "Ġper": 386,
      "Ġ-": 387,
      "Ġse": 388,
      "any": 389,
      "are": 390,
      "The": 391,
      "Ġsu": 392,
      "ĠThe": 393,
      "Ġthis": 394,
      "ist": 395,
      "ap": 396,
      "Ġyear": 397,
      "Ġun": 398,
      "Ġhas": 399,
      "ast": 400,
      "ard": 401,
      "ark": 402,
      "el": 403,
      "Ġal": 404,
      "ost": 405,
      "Ġwor": 406,
      "one": 407,
      "ant": 408,
      "all": 409,
      "ren": 410,
      "Ġab": 411,
      "Ġdo": 412,
      "Ġj": 413,
      "Ġgo": 414,
      "Ġinc": 415,
      "ĠIn": 416,
      "ak": 417,
      "Ġle": 418,
      "ep": 419,
      "Ġch": 420,
      "Ġexp": 421,
      "ud": 422,
      "ks": 423,
      "Ġpr": 424,
      "red": 425,
      "illion": 426,
      "Ġbut": 427,
      "ff": 428,
      "age": 429,
      "ong": 430,
      "vest": 431,
      "gh": 432,
      "ia": 433,
      "ther": 434,
      "Ġits": 435,
      "Ġthey": 436,
      "Ġmore": 437,
      "Ġac": 438,
      "ally": 439,
      "ip": 440,
      "Ġ3": 441,
      "day": 442,
      "cent": 443,
      "ice": 444,
      "Ġup": 445,
      "ary": 446,
      "Ġad": 447,
      "ich": 448,
      "ue": 449,
      "ions": 450,
      "Ġint": 451,
      "Ġcan": 452,
      "ber": 453,
      "arket": 454,
      "Ġsp": 455,
      "Ġpl": 456,
      "Ġag": 457,
      "Ġall": 458,
      "ans": 459,
      "Ġout": 460,
      "Ġyour": 461,
      "ough": 462,
      "ie": 463,
      "eut": 464,
      "ated": 465,
      "ag": 466,
      "act": 467,
      "ĠSt": 468,
      "Ġne": 469,
      "lo": 470,
      "Ġwhe": 471,
      "Ġoff": 472,
      "ure": 473,
      "ack": 474,
      "Ġme": 475,
      "ight": 476,
      "com": 477,
      "ĠK": 478,
      "Ġinvest": 479,
      "ike": 480,
      "Ġwould": 481,
      "ry": 482,
      "Ġmarket": 483,
      "ake": 484,
      "ance": 485,
      "Ġtheir": 486,
      "euters": 487,
      "Ġso": 488,
      "ire": 489,
      "ib": 490,
      "ations": 491,
      "ime": 492,
      "'t": 493,
      "Ġqu": 494,
      "oin": 495,
      "anc": 496,
      "Ġpercent": 497,
      "king": 498,
      "ound": 499,
      "Ġabout": 500,
      "Ġres": 501,
      "ine": 502,
      "Ġcont": 503,
      "Ġus": 504,
      "Ġrep": 505,
      "ĠâĢľ": 506,
      "ase": 507,
      "ON": 508,
      "ĠCh": 509,
      "Ġim": 510,
      "ER": 511,
      "so": 512,
      "Ġwhich": 513,
      "orm": 514,
      "ide": 515,
      "Ġ\"": 516,
      "der": 517,
      "du": 518,
      "very": 519,
      "Ġcompany": 520,
      "Ġover": 521,
      "Ġ2018": 522,
      "Ġpe": 523,
      "ĠTh": 524,
      "Ġfin": 525,
      "ors": 526,
      "Ġco": 527,
      "Ġwho": 528,
      "Ġthan": 529,
      "Ġnew": 530,
      "Ġk": 531,
      "ven": 532,
      "Ġbu": 533,
      "ount": 534,
      "dit": 535,
      "fter": 536,
      "ings": 537,
      "ople": 538,
      "Ġlike": 539,
      "row": 540,
      "iz": 541,
      "ous": 542,
      "own": 543,
      "pt": 544,
      "able": 545,
      "ood": 546,
      "old": 547,
      "ments": 548,
      "ĠY": 549,
      "Ġif": 550,
      "Ġmy": 551,
      "ates": 552,
      "..": 553,
      "ail": 554,
      "Ġsome": 555,
      "Ġpeople": 556,
      "per": 557,
      "Ġafter": 558,
      "Ġcl": 559,
      "Ġget": 560,
      "Ġen": 561,
      "Ġother": 562,
      "con": 563,
      "mer": 564,
      "Ġmillion": 565,
      "Ġfir": 566,
      "Ġalso": 567,
      "Ġone": 568,
      "ĠV": 569,
      "ra": 570,
      "ign": 571,
      "Ġacc": 572,
      "ree": 573,
      "ile": 574,
      ",âĢĿ": 575,
      "form": 576,
      "ank": 577,
      "Ġbeen": 578,
      "ident": 579,
      "IN": 580,
      "ex": 581,
      "Ġind": 582,
      "Ġhis": 583,
      "Ġhad": 584,
      "erv": 585,
      "ub": 586,
      "ww": 587,
      "Ġ5": 588,
      "ord": 589,
      "od": 590,
      "ax": 591,
      "ays": 592,
      "Ġ2017": 593,
      "og": 594,
      "Ġwere": 595,
      "Ġapp": 596,
      "ock": 597,
      "Ġany": 598,
      "Ġjust": 599,
      "ian": 600,
      "Ġtime": 601,
      "Ġstr": 602,
      "iness": 603,
      "ond": 604,
      "ade": 605,
      "Ġ4": 606,
      "tt": 607,
      "aus": 608,
      "ame": 609,
      "Ġ/": 610,
      "ress": 611,
      "Ġmon": 612,
      "Ġbec": 613,
      "usiness": 614,
      "und": 615,
      "Ġimp": 616,
      "ite": 617,
      "Ġpart": 618,
      "Ġar": 619,
      "ell": 620,
      "vel": 621,
      "RE": 622,
      "Ġdis": 623,
      "Ġ6": 624,
      "ices": 625,
      "Ġpre": 626,
      "Ġour": 627,
      "ult": 628,
      "ical": 629,
      "oney": 630,
      "ens": 631,
      "Ġthere": 632,
      "Ġwhat": 633,
      "lud": 634,
      "Ġdec": 635,
      "Ġwhen": 636,
      "ob": 637,
      "ĠTr": 638,
      "Ġyears": 639,
      "ities": 640,
      "av": 641,
      "ace": 642,
      "fe": 643,
      "ass": 644,
      "Reuters": 645,
      "Ġam": 646,
      "Ġmin": 647,
      "ump": 648,
      "Ġcould": 649,
      "ause": 650,
      "Ġinto": 651,
      "anu": 652,
      "ĠCom": 653,
      "Ġmoney": 654,
      "duct": 655,
      "ence": 656,
      "conom": 657,
      "ased": 658,
      "arg": 659,
      "Ġthem": 660,
      "Ġbusiness": 661,
      "uc": 662,
      "ech": 663,
      "lic": 664,
      "Ġstate": 665,
      "Ġcons": 666,
      "aw": 667,
      "ink": 668,
      "ES": 669,
      "Ġmonth": 670,
      "ove": 671,
      "Ġreport": 672,
      "vern": 673,
      "Ġlast": 674,
      "Ġgrow": 675,
      "ĠĠ": 676,
      "amp": 677,
      "hing": 678,
      "ose": 679,
      "Ġact": 680,
      "ang": 681,
      "Ġwork": 682,
      "Ġass": 683,
      "ĠIt": 684,
      "AN": 685,
      "Ġunder": 686,
      "Ġdon": 687,
      "20": 688,
      "urren": 689,
      "Ġinclud": 690,
      "Ġkn": 691,
      "Ġsec": 692,
      "ov": 693,
      "ĠAn": 694,
      "Ġear": 695,
      "Ġret": 696,
      "resident": 697,
      "Ġris": 698,
      "reat": 699,
      "ital": 700,
      "oup": 701,
      "ition": 702,
      "arter": 703,
      "erm": 704,
      "Ġ0": 705,
      "li": 706,
      "Ġlead": 707,
      "ru": 708,
      "Ġreg": 709,
      "ancial": 710,
      "Ġtw": 711,
      "Ġ10": 712,
      "Ġtax": 713,
      "Ġpay": 714,
      "ere": 715,
      "rit": 716,
      "ook": 717,
      "ember": 718,
      "Ġbet": 719,
      "Ġno": 720,
      "Ġgr": 721,
      "Ġhow": 722,
      "uro": 723,
      "Ġcomm": 724,
      "Ġro": 725,
      ":/": 726,
      "Ġfirst": 727,
      "://": 728,
      "EN": 729,
      "AR": 730,
      "Ġbuy": 731,
      "ttp": 732,
      "Ġsc": 733,
      "Ġdown": 734,
      "Ġgovern": 735,
      "000": 736,
      "ĠUn": 737,
      "ual": 738,
      "ting": 739,
      "ward": 740,
      "Ġ7": 741,
      "Ġneed": 742,
      "ited": 743,
      "ational": 744,
      "ince": 745,
      "Ġman": 746,
      "Ġserv": 747,
      "Ġeconom": 748,
      "ating": 749,
      "Ġnow": 750,
      "Ġbillion": 751,
      "uch": 752,
      "ead": 753,
      "oll": 754,
      "Ġhigh": 755,
      "Ġback": 756,
      "urn": 757,
      "Ġwee": 758,
      "Ġsee": 759,
      "ory": 760,
      "Ġbecause": 761,
      "Ġrec": 762,
      "ull": 763,
      "tern": 764,
      "Ġincre": 765,
      "ange": 766,
      "ick": 767,
      "wn": 768,
      "anuary": 769,
      "Ġend": 770,
      "ues": 771,
      "ach": 772,
      "feren": 773,
      "Ġshare": 774,
      "Ġmake": 775,
      "hed": 776,
      "cy": 777,
      "Ġpos": 778,
      "IL": 779,
      "Th": 780,
      "rough": 781,
      "In": 782,
      "alth": 783,
      "vi": 784,
      "Ġmost": 785,
      "Ġpol": 786,
      "ION": 787,
      "Ġcall": 788,
      "OR": 789,
      "Ġonly": 790,
      "Ġsupp": 791,
      "Ġfund": 792,
      "Ġlong": 793,
      "Ġproduct": 794,
      "ced": 795,
      "AT": 796,
      "Ġprov": 797,
      "yst": 798,
      "fit": 799,
      "ĠReuters": 800,
      "ish": 801,
      "ash": 802,
      "Ġevery": 803,
      "Ġquarter": 804,
      "Ġgovernment": 805,
      "AL": 806,
      "Ġexpect": 807,
      "ares": 808,
      "ents": 809,
      "Ġtrad": 810,
      "ĠInc": 811,
      "Ġ8": 812,
      "Ġtwo": 813,
      "lp": 814,
      "Ġmay": 815,
      "pe": 816,
      "Ġann": 817,
      "ics": 818,
      "Ġgood": 819,
      "Ġcurren": 820,
      "iss": 821,
      "Ġmuch": 822,
      "orp": 823,
      "verage": 824,
      "gr": 825,
      "IT": 826,
      "ĠIN": 827,
      "Ġcap": 828,
      "ise": 829,
      "Ġknow": 830,
      "Ġwant": 831,
      "Ġem": 832,
      "Ġagain": 833,
      "Ġstart": 834,
      "ert": 835,
      "Ġthink": 836,
      "Ġown": 837,
      "ild": 838,
      "ĠâĢ": 839,
      "Ġcount": 840,
      "Ġsal": 841,
      "ower": 842,
      "uring": 843,
      "io": 844,
      "Ġsay": 845,
      "we": 846,
      "ning": 847,
      ").": 848,
      "Ġadd": 849,
      "erest": 850,
      "ina": 851,
      "ource": 852,
      ".âĢĿ": 853,
      "ied": 854,
      "Ġbr": 855,
      "fore": 856,
      "Ġfinancial": 857,
      "ne": 858,
      "olog": 859,
      "anies": 860,
      "aking": 861,
      "Ġsub": 862,
      "Ġte": 863,
      "orting": 864,
      "ets": 865,
      "lect": 866,
      "ublic": 867,
      "Ġval": 868,
      "Ġsince": 869,
      "ss": 870,
      "),": 871,
      "Ġhelp": 872,
      "Ġworld": 873,
      "Ġshould": 874,
      "rib": 875,
      "oint": 876,
      "ind": 877,
      "ative": 878,
      "les": 879,
      "ED": 880,
      "Ġwell": 881,
      "ily": 882,
      "ional": 883,
      "eral": 884,
      "ility": 885,
      "Ġke": 886,
      "Ġgoing": 887,
      "ft": 888,
      "Ġthrough": 889,
      "ING": 890,
      "ĠMin": 891,
      "Ġstock": 892,
      "ict": 893,
      "Ġbig": 894,
      "ĠTrump": 895,
      "man": 896,
      "Ġweek": 897,
      "Ġgrowth": 898,
      "ĠFr": 899,
      "Ġdid": 900,
      "Ġeven": 901,
      "ews": 902,
      "ĠRE": 903,
      "Ġcompanies": 904,
      "ik": 905,
      ",\"": 906,
      "Ġfe": 907,
      "AS": 908,
      "ĠDec": 909,
      "Ġthen": 910,
      "ons": 911,
      "ĠQ": 912,
      "ces": 913,
      "Ġrel": 914,
      "Ġoper": 915,
      "ific": 916,
      "Ġinf": 917,
      "ttps": 918,
      "Ġ9": 919,
      "ĠComp": 920,
      "Ġthese": 921,
      "Ġwhere": 922,
      "ty": 923,
      "lob": 924,
      "gy": 925,
      "Ġfour": 926,
      "Ġcr": 927,
      "Ġinterest": 928,
      "cess": 929,
      "Ġatt": 930,
      "echn": 931,
      "Ġprice": 932,
      "Ġmat": 933,
      "sel": 934,
      "Ġbl": 935,
      "Ġago": 936,
      "Ġrem": 937,
      "**": 938,
      "Ġadv": 939,
      "ines": 940,
      "Ġtake": 941,
      "ĠJan": 942,
      "ior": 943,
      "uss": 944,
      "Ġwhile": 945,
      "itt": 946,
      "eporting": 947,
      "Ġshares": 948,
      "Ġbefore": 949,
      "Ġreal": 950,
      "Ġstill": 951,
      "Ġeff": 952,
      "irect": 953,
      "Ġday": 954,
      "hip": 955,
      "Ġtrans": 956,
      "Ġway": 957,
      "ata": 958,
      "Ġsell": 959,
      "ok": 960,
      "ouse": 961,
      "ral": 962,
      "Ġvery": 963,
      "RO": 964,
      "urther": 965,
      "Ġthose": 966,
      "ief": 967,
      "air": 968,
      "ecut": 969,
      "Ġdr": 970,
      "Ġdif": 971,
      "ee": 972,
      "EC": 973,
      "velop": 974,
      "Ġcontin": 975,
      "Ġindust": 976,
      "pr": 977,
      "Ġbeing": 978,
      "als": 979,
      "Ġdoes": 980,
      "Ġ19": 981,
      "ĠOF": 982,
      "Ġnet": 983,
      "the": 984,
      "'re": 985,
      "ĠTO": 986,
      "ĠPresident": 987,
      "Ġincluding": 988,
      "Ġbel": 989,
      "read": 990,
      "meric": 991,
      "Ġdisc": 992,
      "Ġhig": 993,
      "Ġmany": 994,
      "www": 995,
      "Ġfl": 996,
      "Ġlaw": 997,
      "ner": 998,
      "Ġ2016": 999,
      "Ġsuch": 1000,
      "Ġdiv": 1001,
      "ible": 1002,
      "Ġcost": 1003,
      "ix": 1004,
      "Ġincome": 1005,
      "Ġsm": 1006,
      "Ġhold": 1007,
      "ually": 1008,
      "Ġprob": 1009,
      "ĠHe": 1010,
      "ooking": 1011,
      "Ġ.": 1012,
      "...": 1013,
      "ork": 1014,
      "Ġshe": 1015,
      "Ġset": 1016,
      "lobal": 1017,
      "ures": 1018,
      "diting": 1019,
      "Ġpost": 1020,
      "50": 1021,
      "It": 1022,
      "ILL": 1023,
      "Ġent": 1024,
      "Ġmade": 1025,
      "loy": 1026,
      "erson": 1027,
      "https": 1028,
      "Ġplan": 1029,
      "aj": 1030,
      "Ġop": 1031,
      "urs": 1032,
      "Ġgen": 1033,
      "10": 1034,
      "Ġmed": 1035,
      "Ġgu": 1036,
      "eb": 1037,
      "ĠCompany": 1038,
      "ãĢ": 1039,
      "ĠEuro": 1040,
      "ãĢĢ": 1041,
      "Ġher": 1042,
      "Ġfut": 1043,
      "Ġsign": 1044,
      "Ġev": 1045,
      "Ġbank": 1046,
      "ploy": 1047,
      "Ġlot": 1048,
      "ife": 1049,
      "ĠIf": 1050,
      "year": 1051,
      "ĠEditing": 1052,
      "Ġdevelop": 1053,
      "Ġannoun": 1054,
      "Ġsl": 1055,
      "oth": 1056,
      "Ġhere": 1057,
      "UT": 1058,
      "ĠDecember": 1059,
      "echnolog": 1060,
      "aff": 1061,
      "line": 1062,
      "Ġnum": 1063,
      "ared": 1064,
      "ĠAmeric": 1065,
      "Ġuse": 1066,
      "Ġdes": 1067,
      "Ġjob": 1068,
      "Ġresp": 1069,
      "ĠYou": 1070,
      "ults": 1071,
      "Ġaround": 1072,
      "Ġdef": 1073,
      "ject": 1074,
      "formation": 1075,
      "arch": 1076,
      "Ġthree": 1077,
      "eg": 1078,
      "eri": 1079,
      "Ġest": 1080,
      "Ġcar": 1081,
      "olut": 1082,
      "Ġins": 1083,
      "US": 1084,
      "lease": 1085,
      "Ġinvestment": 1086,
      "nes": 1087,
      "Ġagainst": 1088,
      "ric": 1089,
      "We": 1090,
      "xt": 1091,
      "Ġappro": 1092,
      "hen": 1093,
      "ys": 1094,
      "oss": 1095,
      "gan": 1096,
      "omet": 1097,
      "other": 1098,
      "Ġreally": 1099,
      "ont": 1100,
      ".\"": 1101,
      "ĠSh": 1102,
      "ives": 1103,
      "ĠWe": 1104,
      "pd": 1105,
      "Ġiss": 1106,
      "ocks": 1107,
      "ollow": 1108,
      "Ġdata": 1109,
      "Ġtold": 1110,
      "Ġsame": 1111,
      "ĠEurope": 1112,
      "ext": 1113,
      "utes": 1114,
      "ful": 1115,
      "Ġtal": 1116,
      "Ġshow": 1117,
      "Ġdeal": 1118,
      "led": 1119,
      "ĠWh": 1120,
      "Ġ30": 1121,
      "ered": 1122,
      "orpor": 1123,
      "IC": 1124,
      "ason": 1125,
      "ision": 1126,
      "Ġmonths": 1127,
      "'m": 1128,
      "ĠUnited": 1129,
      "Ġdeb": 1130,
      "Ġhapp": 1131,
      "ering": 1132,
      "Ġ12": 1133,
      "agement": 1134,
      "ately": 1135,
      "ĠThis": 1136,
      "Ġban": 1137,
      "ĠChina": 1138,
      "Ġfirm": 1139,
      "Ġvalue": 1140,
      "llar": 1141,
      "uck": 1142,
      "ield": 1143,
      "This": 1144,
      "ially": 1145,
      "Ġsur": 1146,
      "med": 1147,
      "Ġlo": 1148,
      "Ġ,": 1149,
      "ribut": 1150,
      "Ġdollar": 1151,
      "Ġcurrent": 1152,
      "ĠGr": 1153,
      "ration": 1154,
      "orth": 1155,
      "Ġnext": 1156,
      "Ġbro": 1157,
      "ðŁ": 1158,
      "Ġ&": 1159,
      "Ġduring": 1160,
      "ains": 1161,
      "ending": 1162,
      "ERS": 1163,
      "ĠRead": 1164,
      "land": 1165,
      "UR": 1166,
      "its": 1167,
      "ah": 1168,
      "Ġoffic": 1169,
      "ference": 1170,
      "Ġput": 1171,
      "Ġdem": 1172,
      "ustom": 1173,
      "Ġsales": 1174,
      "ene": 1175,
      "Ġearn": 1176,
      "az": 1177,
      "Ġfore": 1178,
      "Ġplay": 1179,
      "Ġprofit": 1180,
      "ĠEx": 1181,
      "ystem": 1182,
      "arge": 1183,
      "ĠBut": 1184,
      "ĠAnd": 1185,
      "ries": 1186,
      "Ġprices": 1187,
      "ĠNew": 1188,
      "cer": 1189,
      "Ġaut": 1190,
      "Ġav": 1191,
      "Ġdep": 1192,
      "ĠUS": 1193,
      "ater": 1194,
      "Ġequ": 1195,
      "ants": 1196,
      "Ġminutes": 1197,
      "ross": 1198,
      "Ġteam": 1199,
      "Ġfollow": 1200,
      "Ġext": 1201,
      "ving": 1202,
      "son": 1203,
      "Ġterm": 1204,
      "Ġsecond": 1205,
      "ENT": 1206,
      "Ġprovid": 1207,
      "gest": 1208,
      "let": 1209,
      "oard": 1210,
      "orts": 1211,
      "ave": 1212,
      "Ġresults": 1213,
      "ĠAs": 1214,
      "Ġinformation": 1215,
      "Ġstrate": 1216,
      "ĠBank": 1217,
      "outh": 1218,
      "Ġfuture": 1219,
      "ajor": 1220,
      "Ġfull": 1221,
      "lation": 1222,
      "hold": 1223,
      "ases": 1224,
      "Ġrun": 1225,
      "ĠFor": 1226,
      "ĠJanuary": 1227,
      "Ġhour": 1228,
      "January": 1229,
      "17": 1230,
      "Jan": 1231,
      "Ġcustom": 1232,
      "Ġpublic": 1233,
      "ects": 1234,
      "ĠAN": 1235,
      "Ġcash": 1236,
      "Ġfew": 1237,
      "Ġkeep": 1238,
      "Ġinst": 1239,
      "Ġ*": 1240,
      "ording": 1241,
      "ween": 1242,
      "Ġlow": 1243,
      "ãĢĢãĢĢ": 1244,
      "Ġtop": 1245,
      "ĠAl": 1246,
      "Ġgroup": 1247,
      "Ġref": 1248,
      "Ġinvestors": 1249,
      "Ġbetter": 1250,
      "Ġnews": 1251,
      "Ġstocks": 1252,
      "ILLION": 1253,
      "ages": 1254,
      "Ġph": 1255,
      "Ġhealth": 1256,
      "Ġindustry": 1257,
      "way": 1258,
      "Ġhead": 1259,
      "Ġanal": 1260,
      "Ġspec": 1261,
      "ĠMon": 1262,
      "Ġbit": 1263,
      "Ġsomet": 1264,
      "Ġbetween": 1265,
      "Ġrisk": 1266,
      "Ġsim": 1267,
      "Ġright": 1268,
      "lear": 1269,
      "Ġopp": 1270,
      "ically": 1271,
      "Ġglobal": 1272,
      "iving": 1273,
      "Ġthough": 1274,
      "Ġservices": 1275,
      "Ġcapital": 1276,
      "Ġ11": 1277,
      "Ġrate": 1278,
      "Ġpolic": 1279,
      "Ġlook": 1280,
      "ĠPr": 1281,
      "Ġtrading": 1282,
      "ĠInd": 1283,
      "Ġ31": 1284,
      "ertain": 1285,
      "thing": 1286,
      "self": 1287,
      "Ġstrong": 1288,
      "ĠCo": 1289,
      "Ġhigher": 1290,
      "ĠThey": 1291,
      "Ġdirect": 1292,
      "Ġche": 1293,
      "IS": 1294,
      "vious": 1295,
      "nt": 1296,
      "Ġtoday": 1297,
      "Ġcent": 1298,
      "ug": 1299,
      "Ġgreat": 1300,
      "ying": 1301,
      "Ġshort": 1302,
      "ular": 1303,
      "Ġmarkets": 1304,
      "ier": 1305,
      "Ġexpected": 1306,
      "Ġfourth": 1307,
      "Ġless": 1308,
      "Ġmajor": 1309,
      "ands": 1310,
      "Ġreturn": 1311,
      "Ġtrade": 1312,
      "ends": 1313,
      "akes": 1314,
      "ternational": 1315,
      "ĠĠĊ": 1316,
      "ath": 1317,
      "ton": 1318,
      "Ġperson": 1319,
      "OM": 1320,
      "imes": 1321,
      "echnology": 1322,
      "ved": 1323,
      "Ġhome": 1324,
      "Ġforward": 1325,
      "ĠAd": 1326,
      "Ġrecent": 1327,
      "EO": 1328,
      "--": 1329,
      "bs": 1330,
      "ecutive": 1331,
      "Ġoil": 1332,
      "ency": 1333,
      "Ġsecur": 1334,
      "sh": 1335,
      "Ġleg": 1336,
      "arm": 1337,
      "uesday": 1338,
      "Ġtoo": 1339,
      "ized": 1340,
      "ever": 1341,
      "ĠUpd": 1342,
      "Ġcountry": 1343,
      "18": 1344,
      "Ġaccount": 1345,
      "Ġincrease": 1346,
      "Ġrequ": 1347,
      "Ġhim": 1348,
      "ĠTuesday": 1349,
      "ck": 1350,
      "Ġ15": 1351,
      "bers": 1352,
      "Ġelect": 1353,
      "ĠPM": 1354,
      "Ġthings": 1355,
      "Ġcare": 1356,
      "Ġnear": 1357,
      "Ġlevel": 1358,
      "](": 1359,
      "Ġmeet": 1360,
      "Ġemploy": 1361,
      "30": 1362,
      "ĠStates": 1363,
      "ĠWed": 1364,
      "Ġfact": 1365,
      "Ġcoverage": 1366,
      "lose": 1367,
      "12": 1368,
      "ĠAr": 1369,
      "ĠUpdated": 1370,
      "Ġbas": 1371,
      "pl": 1372,
      "'ve": 1373,
      "Ġprot": 1374,
      "Ġopen": 1375,
      "Ġmove": 1376,
      "ger": 1377,
      "ize": 1378,
      "Ġsupport": 1379,
      "iday": 1380,
      "Ġtext": 1381,
      "Reporting": 1382,
      "oh": 1383,
      "ĠAM": 1384,
      "Ġconf": 1385,
      "nesday": 1386,
      "Ġbest": 1387,
      "osed": 1388,
      "Ġboth": 1389,
      "Ġ200": 1390,
      "Ġfam": 1391,
      "ised": 1392,
      "ĠKore": 1393,
      "Ġloc": 1394,
      "ient": 1395,
      "Ġfound": 1396,
      "Ġed": 1397,
      "Ġcoll": 1398,
      "ĠWednesday": 1399,
      "If": 1400,
      "Ġwon": 1401,
      "ursday": 1402,
      "ned": 1403,
      "Ġacqu": 1404,
      "ocus": 1405,
      "Ġreven": 1406,
      "Ġwin": 1407,
      "ET": 1408,
      "gram": 1409,
      "Ġgot": 1410,
      "Ġnumber": 1411,
      "Ġstatements": 1412,
      "vers": 1413,
      "Ġ[": 1414,
      "Ġmain": 1415,
      "Ġopt": 1416,
      "ĠZ": 1417,
      "ense": 1418,
      "min": 1419,
      "Ġdue": 1420,
      "Ġexperi": 1421,
      "Ġrecord": 1422,
      "Ġpoint": 1423,
      "Ġinter": 1424,
      "ĠThursday": 1425,
      "Ġaccording": 1426,
      "Ġdet": 1427,
      "Ġra": 1428,
      "Ġpresident": 1429,
      "Ġbuild": 1430,
      "ĠCan": 1431,
      "get": 1432,
      "ably": 1433,
      "rypt": 1434,
      "pect": 1435,
      "Ġhard": 1436,
      "Ġdebt": 1437,
      "Ġlife": 1438,
      "ued": 1439,
      "ĠBrit": 1440,
      "Ġsomething": 1441,
      "Ġannounced": 1442,
      "ĠComm": 1443,
      "less": 1444,
      "ird": 1445,
      "Ġread": 1446,
      "Ġfind": 1447,
      "Ġpur": 1448,
      "ruct": 1449,
      "ners": 1450,
      "Ġcour": 1451,
      "oy": 1452,
      "Ġsystem": 1453,
      "ieve": 1454,
      "ĠThat": 1455,
      "Ġanother": 1456,
      "unity": 1457,
      "AP": 1458,
      "iting": 1459,
      "Ġsuc": 1460,
      "ling": 1461,
      "Ġproper": 1462,
      "ready": 1463,
      "ired": 1464,
      "YS": 1465,
      "Ġmight": 1466,
      "hes": 1467,
      "Ġclose": 1468,
      "stand": 1469,
      "Ġeconomy": 1470,
      "aid": 1471,
      "rat": 1472,
      "Ġet": 1473,
      "Ġport": 1474,
      "lin": 1475,
      "15": 1476,
      "Ġdist": 1477,
      "ool": 1478,
      "Ġrest": 1479,
      "ĠNorth": 1480,
      "ĠMonday": 1481,
      "oints": 1482,
      "ĠFin": 1483,
      "ĠGM": 1484,
      "isc": 1485,
      "Ġused": 1486,
      "Ġproducts": 1487,
      "Ġalready": 1488,
      "be": 1489,
      "Ġaff": 1490,
      "Ġpress": 1491,
      "ĠStaff": 1492,
      "ists": 1493,
      "ĠCEO": 1494,
      "Ġofficial": 1495,
      "Ġfocus": 1496,
      "resent": 1497,
      "Ġchang": 1498,
      "Ġposs": 1499,
      "Ġearnings": 1500,
      "Ġ18": 1501,
      "Ġquest": 1502,
      "DA": 1503,
      "ederal": 1504,
      "redit": 1505,
      "ained": 1506,
      "Ġinv": 1507,
      "ĠRep": 1508,
      "ĠTH": 1509,
      "ways": 1510,
      "Ġdifferen": 1511,
      "ister": 1512,
      "Ġmanagement": 1513,
      "Ġlikely": 1514,
      "An": 1515,
      "ĠSec": 1516,
      "wire": 1517,
      "ST": 1518,
      "Ġlist": 1519,
      "Ġeconomic": 1520,
      "gt": 1521,
      "Ġsmall": 1522,
      "Ġcut": 1523,
      "Ġmil": 1524,
      "Ġpolicy": 1525,
      "ĠSo": 1526,
      "Ġallow": 1527,
      "ten": 1528,
      "ĠPh": 1529,
      "Ġvis": 1530,
      "Ġhit": 1531,
      "ather": 1532,
      "ĠFriday": 1533,
      "cept": 1534,
      "ĠDon": 1535,
      "Ġmem": 1536,
      "EL": 1537,
      "ĠRe": 1538,
      "ential": 1539,
      "AC": 1540,
      "Ġpot": 1541,
      "pped": 1542,
      "ĠGroup": 1543,
      "te": 1544,
      "ale": 1545,
      "ph": 1546,
      "ote": 1547,
      "Ġrates": 1548,
      "ivers": 1549,
      "Ġdivid": 1550,
      "ĠMILLION": 1551,
      "Ġcre": 1552,
      "iven": 1553,
      "Ġnever": 1554,
      "Ġavail": 1555,
      "inc": 1556,
      "TS": 1557,
      "Ġsect": 1558,
      "lem": 1559,
      "iew": 1560,
      "Ġconsum": 1561,
      "cast": 1562,
      "Ġeuro": 1563,
      "ames": 1564,
      "Ġprogram": 1565,
      "ĠET": 1566,
      "change": 1567,
      "Ġpoints": 1568,
      "Ġtechnology": 1569,
      "OL": 1570,
      "ium": 1571,
      "ury": 1572,
      "ĠFeb": 1573,
      "Ġregul": 1574,
      "Ġpass": 1575,
      ".,": 1576,
      "Ġlarg": 1577,
      "fer": 1578,
      "Ġtot": 1579,
      "Ġsays": 1580,
      "Ġ--": 1581,
      "orn": 1582,
      "ĠEuropean": 1583,
      "Ġfeel": 1584,
      "Ġwar": 1585,
      "Ġimport": 1586,
      "Ġlower": 1587,
      "Ġloss": 1588,
      "25": 1589,
      "til": 1590,
      "Wh": 1591,
      "to": 1592,
      "Ġwithout": 1593,
      "Ġdays": 1594,
      "Ġlarge": 1595,
      "Ġbene": 1596,
      "Ġmanag": 1597,
      "Ġstatement": 1598,
      "Ġob": 1599,
      "Ġstud": 1600,
      "ights": 1601,
      "ng": 1602,
      "HA": 1603,
      "Ġmaking": 1604,
      "Ġleast": 1605,
      "Ġspe": 1606,
      "ĠSouth": 1607,
      "Ġchange": 1608,
      "ari": 1609,
      "Ġeas": 1610,
      "Ġcome": 1611,
      "Ġworking": 1612,
      "view": 1613,
      "Ġdemand": 1614,
      "OT": 1615,
      "Ġdifferent": 1616,
      "ĠFurther": 1617,
      "Ġ25": 1618,
      "ĠPro": 1619,
      "Ġpower": 1620,
      "Ġpast": 1621,
      "Ġaddit": 1622,
      "ai": 1623,
      "itive": 1624,
      "ri": 1625,
      "40": 1626,
      "Ġfar": 1627,
      "ald": 1628,
      "Ġ100": 1629,
      "But": 1630,
      "ĠSource": 1631,
      "Ġhours": 1632,
      "ract": 1633,
      "Ġcrypt": 1634,
      "Ġwhy": 1635,
      "Ġassets": 1636,
      "Ġavailable": 1637,
      "Ġ16": 1638,
      "Ġreported": 1639,
      "Ġdoing": 1640,
      "Ġindex": 1641,
      "iod": 1642,
      "ĠIs": 1643,
      "Ġthing": 1644,
      "Ġperform": 1645,
      "Ġmult": 1646,
      "Ġmean": 1647,
      "Ġbased": 1648,
      "Ġmov": 1649,
      "As": 1650,
      "Ġgener": 1651,
      "Ġfac": 1652,
      "Ġcompet": 1653,
      "'ll": 1654,
      "Ġworth": 1655,
      "Ġplace": 1656,
      "BC": 1657,
      "alf": 1658,
      "Ġsit": 1659,
      "Ġrese": 1660,
      "Ġpriv": 1661,
      "Ġcontro": 1662,
      "Ġhouse": 1663,
      "yn": 1664,
      "Ġfree": 1665,
      "Ġgive": 1666,
      "ees": 1667,
      "Ġcor": 1668,
      "ified": 1669,
      "Ġfunds": 1670,
      "ĠĠĠĠ": 1671,
      "Ġdoesn": 1672,
      "Ġinflation": 1673,
      "Ġcontinue": 1674,
      "au": 1675,
      "Ġpat": 1676,
      "Ġel": 1677,
      "eng": 1678,
      "Ġuntil": 1679,
      "ention": 1680,
      "Ġprevious": 1681,
      "me": 1682,
      "oub": 1683,
      "ĠGerm": 1684,
      "Ġrevenue": 1685,
      "ĠCanad": 1686,
      "St": 1687,
      "Ġcompared": 1688,
      "Ġprom": 1689,
      "ope": 1690,
      "Ġadded": 1691,
      "icip": 1692,
      "Ġsuccess": 1693,
      "Ġmet": 1694,
      "Ġperiod": 1695,
      "Ġ)": 1696,
      "aker": 1697,
      "Ġproblem": 1698,
      "EW": 1699,
      "ients": 1700,
      "inal": 1701,
      "ĠDav": 1702,
      "Ġrelease": 1703,
      "ĠRuss": 1704,
      "Ġcountries": 1705,
      "Ġcomment": 1706,
      "Ġable": 1707,
      "Ġi": 1708,
      "ins": 1709,
      "Ġneg": 1710,
      "news": 1711,
      "Ġenough": 1712,
      "oci": 1713,
      "inese": 1714,
      "ective": 1715,
      "ism": 1716,
      "Ġaverage": 1717,
      "ittle": 1718,
      "Ġagree": 1719,
      "Ġpolit": 1720,
      "ission": 1721,
      "Ġlet": 1722,
      "Ġbre": 1723,
      "Ġacross": 1724,
      "itut": 1725,
      "Ġ17": 1726,
      "fol": 1727,
      "ĠInvest": 1728,
      "wit": 1729,
      "Ġtotal": 1730,
      "Ġseen": 1731,
      "coin": 1732,
      "Ġfil": 1733,
      "You": 1734,
      "Ġlive": 1735,
      "ann": 1736,
      "Ġearly": 1737,
      "Ġnon": 1738,
      "ret": 1739,
      "ds": 1740,
      "16": 1741,
      "over": 1742,
      "Ġeach": 1743,
      "Ġ'": 1744,
      "Ġretail": 1745,
      "Ġcomplet": 1746,
      "att": 1747,
      "Ġimpro": 1748,
      "ources": 1749,
      "IRE": 1750,
      "Ġsecurity": 1751,
      "ĠAm": 1752,
      "Ġexperience": 1753,
      "Ġsure": 1754,
      "Ġoffer": 1755,
      "Ġalways": 1756,
      "Ġdiscuss": 1757,
      "upt": 1758,
      "atch": 1759,
      "ising": 1760,
      "Ġhappen": 1761,
      "Ġplans": 1762,
      "ware": 1763,
      "Ġmod": 1764,
      "Ġdro": 1765,
      "UTERS": 1766,
      "Ġaccess": 1767,
      "Ġthird": 1768,
      "ĠYork": 1769,
      "RI": 1770,
      "ves": 1771,
      "of": 1772,
      "sc": 1773,
      "Ġactually": 1774,
      "esp": 1775,
      "Ġprocess": 1776,
      "ĠREUTERS": 1777,
      "19": 1778,
      "ffic": 1779,
      "Ġ50": 1780,
      "Ġsaying": 1781,
      "Ġgetting": 1782,
      "lier": 1783,
      "ĠAust": 1784,
      "enn": 1785,
      "Ġbenefit": 1786,
      "Ġpar": 1787,
      "ĠAmerican": 1788,
      "For": 1789,
      "Ġended": 1790,
      "Ġturn": 1791,
      "ality": 1792,
      "iqu": 1793,
      "Ġfall": 1794,
      "Ġcredit": 1795,
      "ĠAf": 1796,
      "ged": 1797,
      "cl": 1798,
      "Ġcustomers": 1799,
      "ought": 1800,
      "Ġask": 1801,
      "Ġservice": 1802,
      "Ġbond": 1803,
      "Ġlittle": 1804,
      "Ġconference": 1805,
      "UN": 1806,
      "aim": 1807,
      "ĠChinese": 1808,
      "Ġcase": 1809,
      "urance": 1810,
      "go": 1811,
      "ĠBr": 1812,
      "hor": 1813,
      "Ġjoin": 1814,
      "13": 1815,
      "Ġvol": 1816,
      "CE": 1817,
      "Ġformer": 1818,
      "ĠReporting": 1819,
      "Ġanalyst": 1820,
      "Ġleading": 1821,
      "side": 1822,
      "ĠMan": 1823,
      "Ġ13": 1824,
      "based": 1825,
      "ĠSp": 1826,
      "head": 1827,
      "Ġseem": 1828,
      "ished": 1829,
      "Ġamount": 1830,
      "Ġleaders": 1831,
      "td": 1832,
      "Ġair": 1833,
      "âĢĭ": 1834,
      "ider": 1835,
      "ĠRes": 1836,
      "Ġcosts": 1837,
      "here": 1838,
      "erve": 1839,
      "uation": 1840,
      "ator": 1841,
      "ization": 1842,
      "aun": 1843,
      "looking": 1844,
      "folio": 1845,
      "Ġmedia": 1846,
      "Ġwebs": 1847,
      "Ġpurch": 1848,
      "ĠCap": 1849,
      "Ġlargest": 1850,
      "Ġlooking": 1851,
      "asing": 1852,
      "Ġsol": 1853,
      "orporate": 1854,
      "ĠAND": 1855,
      "Ġhaving": 1856,
      "ream": 1857,
      "Ġopport": 1858,
      "Ġincreased": 1859,
      "Ġbanks": 1860,
      "Ab": 1861,
      "Ġimpact": 1862,
      "aining": 1863,
      "Ġbuying": 1864,
      "cies": 1865,
      "Ġmid": 1866,
      "istration": 1867,
      "ID": 1868,
      "Ġwithin": 1869,
      "Ġconst": 1870,
      "els": 1871,
      "Ġbiggest": 1872,
      "Ġmeeting": 1873,
      "Ġsolut": 1874,
      "ran": 1875,
      "Ġtarg": 1876,
      "Ġlear": 1877,
      "Ġfurther": 1878,
      "ler": 1879,
      "ĠKorea": 1880,
      "Ġ14": 1881,
      "Ġimportant": 1882,
      "ĠThere": 1883,
      "Ġrece": 1884,
      "lex": 1885,
      "Ġide": 1886,
      "atur": 1887,
      "ocial": 1888,
      "ivid": 1889,
      "ificant": 1890,
      "alif": 1891,
      "ived": 1892,
      "de": 1893,
      "There": 1894,
      "Ġhttp": 1895,
      "ability": 1896,
      "apan": 1897,
      "cc": 1898,
      "Ġlim": 1899,
      "Ġbelieve": 1900,
      "Ġwr": 1901,
      "Ġhand": 1902,
      "Ġposition": 1903,
      "Ġ24": 1904,
      "Ġreason": 1905,
      "Ġform": 1906,
      "Ġcommon": 1907,
      "ron": 1908,
      "Ġconcer": 1909,
      "for": 1910,
      "Ġresult": 1911,
      "Ġrul": 1912,
      "ĠST": 1913,
      "comm": 1914,
      "Ġinvesting": 1915,
      "ĠPart": 1916,
      "ocrat": 1917,
      "Ġdevelopment": 1918,
      "EM": 1919,
      "Ġunderstand": 1920,
      "most": 1921,
      "14": 1922,
      "Ġprodu": 1923,
      "Ġwhether": 1924,
      "ĠFOR": 1925,
      "ott": 1926,
      "Ġstrateg": 1927,
      "UL": 1928,
      "Ġprobably": 1929,
      "down": 1930,
      "Ġdeli": 1931,
      "Ġetc": 1932,
      "Ġusing": 1933,
      "Ġproduction": 1934,
      "Ġwww": 1935,
      "ties": 1936,
      "ĠDe": 1937,
      "Ġestim": 1938,
      "rs": 1939,
      "Ġfamily": 1940,
      "Ġorgan": 1941,
      "Ġdidn": 1942,
      "Ġaway": 1943,
      "Ġtell": 1944,
      "Ġclear": 1945,
      "Ġyield": 1946,
      "Ġpotential": 1947,
      "reet": 1948,
      "Ġprop": 1949,
      "ohn": 1950,
      "rupt": 1951,
      "Ġportfolio": 1952,
      "ards": 1953,
      "ĠINC": 1954,
      "just": 1955,
      "app": 1956,
      "Ġtest": 1957,
      "Ġexpens": 1958,
      "Ġresearch": 1959,
      "Ġ:": 1960,
      "ĠHouse": 1961,
      "Ġfollowing": 1962,
      "ĠCar": 1963,
      "Ġlater": 1964,
      "Ġchief": 1965,
      "Ġwebsite": 1966,
      "ĠSecur": 1967,
      "ounts": 1968,
      "fact": 1969,
      "int": 1970,
      "ured": 1971,
      "Ġrose": 1972,
      "Ġisn": 1973,
      "rug": 1974,
      "Ġ23": 1975,
      "Ġredu": 1976,
      "ude": 1977,
      "mp": 1978,
      "ruary": 1979,
      "Ġ40": 1980,
      "Ġ22": 1981,
      "Ġexpl": 1982,
      "He": 1983,
      "omen": 1984,
      "Ġsignificant": 1985,
      "Ġhist": 1986,
      "ĠLtd": 1987,
      "Ġvisit": 1988,
      "rel": 1989,
      "ection": 1990,
      "HARE": 1991,
      "Ġpossible": 1992,
      "TER": 1993,
      "aper": 1994,
      "Ġcurrency": 1995,
      "Ġacquis": 1996,
      "ĠBe": 1997,
      "Ġsk": 1998,
      "hest": 1999,
      "OS": 2000,
      "rew": 2001,
      "Ġbill": 2002,
      "co": 2003,
      "ĠState": 2004,
      "ney": 2005,
      "Ġmeans": 2006,
      "Ġmiss": 2007,
      "ĠEU": 2008,
      "Ġant": 2009,
      "Ġcalled": 2010,
      "holders": 2011,
      "atform": 2012,
      "chool": 2013,
      "enior": 2014,
      "Ġinclude": 2015,
      "work": 2016,
      "Ġmilit": 2017,
      "Ġfive": 2018,
      "ĠMed": 2019,
      "About": 2020,
      "22": 2021,
      "ikon": 2022,
      "Ġsomeone": 2023,
      "Ġbad": 2024,
      "ĠPER": 2025,
      "Ġfell": 2026,
      "ĠEikon": 2027,
      "uct": 2028,
      "uff": 2029,
      "ĠâĢį": 2030,
      "ĠMay": 2031,
      "Ġdecision": 2032,
      "Ġtook": 2033,
      "Ġeng": 2034,
      "ĠMar": 2035,
      "ergy": 2036,
      "Ġtrying": 2037,
      "ilities": 2038,
      "Ch": 2039,
      "mber": 2040,
      "Ġsix": 2041,
      "Ġbeh": 2042,
      "osing": 2043,
      "ci": 2044,
      "reed": 2045,
      "âĢĺ": 2046,
      "aud": 2047,
      "Ġhalf": 2048,
      "11": 2049,
      "Ġsing": 2050,
      "Ġbecome": 2051,
      "ances": 2052,
      "ĠCent": 2053,
      "ĠMarch": 2054,
      "ĠDem": 2055,
      "Ġtimes": 2056,
      "ovember": 2057,
      "itions": 2058,
      "ety": 2059,
      "ilar": 2060,
      "medi": 2061,
      "ĠFebruary": 2062,
      "uge": 2063,
      "Ġmakes": 2064,
      "Ġpaid": 2065,
      "ators": 2066,
      "Ġprovide": 2067,
      "Ġproject": 2068,
      "ĠLe": 2069,
      "ĠSA": 2070,
      "orld": 2071,
      "ern": 2072,
      "ounds": 2073,
      "Ġcertain": 2074,
      "ended": 2075,
      "Ġsever": 2076,
      "ĠDonald": 2077,
      "Ġ($": 2078,
      "ober": 2079,
      "Ġfail": 2080,
      "ĠBritain": 2081,
      "Ġdistribut": 2082,
      "Ġstrategy": 2083,
      "imately": 2084,
      "Ġprivate": 2085,
      "ness": 2086,
      "Ġgains": 2087,
      "igation": 2088,
      "wards": 2089,
      "Ġmembers": 2090,
      "Ġimm": 2091,
      "ili": 2092,
      "Ġcontrol": 2093,
      "uan": 2094,
      "ĠJapan": 2095,
      "artment": 2096,
      "Ġproperty": 2097,
      "ĠSHARE": 2098,
      "ĠPRO": 2099,
      "Ġstarted": 2100,
      "Ġtalks": 2101,
      "Ġstand": 2102,
      "Ġperformance": 2103,
      "ĠNovember": 2104,
      "Ġleader": 2105,
      "ĠAustral": 2106,
      "gress": 2107,
      "Ġprior": 2108,
      "Ġold": 2109,
      "ĠNet": 2110,
      "lement": 2111,
      "ĠBl": 2112,
      "Ġinit": 2113,
      "Ġamong": 2114,
      "ĠâĢĶ": 2115,
      "Ġz": 2116,
      "Ġboard": 2117,
      "Ġtransact": 2118,
      "ones": 2119,
      "ĠSun": 2120,
      "ĠFinancial": 2121,
      "par": 2122,
      "ĠX": 2123,
      "ĠAct": 2124,
      "ĠChief": 2125,
      "gle": 2126,
      "ĠCorp": 2127,
      "Ġquestion": 2128,
      "Ġplatform": 2129,
      "21": 2130,
      "ides": 2131,
      "Ġoperations": 2132,
      "pro": 2133,
      "Ġcrit": 2134,
      "Ġever": 2135,
      "ĠApp": 2136,
      "term": 2137,
      "Ġenergy": 2138,
      "Ġoffice": 2139,
      "ither": 2140,
      "Ġdel": 2141,
      "Ġanything": 2142,
      "ĠAll": 2143,
      "Ġfederal": 2144,
      "Ġseveral": 2145,
      "Ġgame": 2146,
      "Ġ|": 2147,
      "ept": 2148,
      "Ġclaim": 2149,
      "Ġsupply": 2150,
      "Ġdig": 2151,
      "Ġspending": 2152,
      "oot": 2153,
      "Ġbar": 2154,
      "Ġactiv": 2155,
      "Ġbroad": 2156,
      "Ġprof": 2157,
      "ĠRepublic": 2158,
      "gin": 2159,
      "60": 2160,
      "ely": 2161,
      "Ġevent": 2162,
      "ched": 2163,
      "IV": 2164,
      "Ġissue": 2165,
      "'d": 2166,
      "Ġabove": 2167,
      "Ġty": 2168,
      "Ġtaking": 2169,
      "Ġrise": 2170,
      "Ġweeks": 2171,
      "Ġmeas": 2172,
      "Ġinternational": 2173,
      "uper": 2174,
      "Ġdone": 2175,
      "Ġchild": 2176,
      "Ġleft": 2177,
      "Ġreports": 2178,
      "aken": 2179,
      "ody": 2180,
      "Ġlocal": 2181,
      "Ġpop": 2182,
      "ift": 2183,
      "port": 2184,
      "Ġpus": 2185,
      "Ġlaun": 2186,
      "Ġeveryone": 2187,
      "200": 2188,
      "Ġcentral": 2189,
      "akers": 2190,
      "Ġboo": 2191,
      "wh": 2192,
      "err": 2193,
      "Ġforeign": 2194,
      "ashing": 2195,
      "Ġrent": 2196,
      "Ġtarget": 2197,
      "Ġexc": 2198,
      "Ġsold": 2199,
      "Ġrepl": 2200,
      "Ġchanges": 2201,
      "ĠCapital": 2202,
      "hic": 2203,
      "br": 2204,
      "ĠTo": 2205,
      "ĠThom": 2206,
      "une": 2207,
      "Ġsimilar": 2208,
      "80": 2209,
      "cing": 2210,
      "val": 2211,
      "Ġequity": 2212,
      "Ġcorporate": 2213,
      "anufact": 2214,
      "Ġahead": 2215,
      "Ġheld": 2216,
      "Ġsug": 2217,
      "Ġexecutive": 2218,
      "ĠJohn": 2219,
      "Ġdoub": 2220,
      "Ġdividend": 2221,
      "not": 2222,
      "Ġoperating": 2223,
      "ĠDemocrat": 2224,
      "iron": 2225,
      "23": 2226,
      "rap": 2227,
      "ĠEX": 2228,
      "merc": 2229,
      "Ġinvol": 2230,
      "Ġcamp": 2231,
      "Ġnearly": 2232,
      "org": 2233,
      "ulation": 2234,
      "Ġloan": 2235,
      "ging": 2236,
      "Ġcondit": 2237,
      "Source": 2238,
      "Ġauthor": 2239,
      "ministration": 2240,
      "Ġestate": 2241,
      "Ġwealth": 2242,
      "acks": 2243,
      "ined": 2244,
      "ĠAmerica": 2245,
      "ox": 2246,
      "Ġcoming": 2247,
      "ĠPl": 2248,
      "ĠCalif": 2249,
      "Ġexamp": 2250,
      "Ġtry": 2251,
      "ATION": 2252,
      "Ġonce": 2253,
      "Ġtreat": 2254,
      "reen": 2255,
      "Ġrelations": 2256,
      "yr": 2257,
      "acy": 2258,
      "EF": 2259,
      "Ġbelow": 2260,
      "ĠNews": 2261,
      "Ġpros": 2262,
      "Ġalmost": 2263,
      "ĠDep": 2264,
      "Ġbusinesses": 2265,
      "That": 2266,
      "Ġorder": 2267,
      "Ġrisks": 2268,
      "ĠMc": 2269,
      "tty": 2270,
      "ĠSe": 2271,
      "Ġfri": 2272,
      "Ġshut": 2273,
      "ley": 2274,
      "Ġunc": 2275,
      "mercial": 2276,
      "ĠOr": 2277,
      "Ġbor": 2278,
      "Ġearlier": 2279,
      "iscal": 2280,
      "Ġsingle": 2281,
      "nov": 2282,
      "Ġsector": 2283,
      "70": 2284,
      "Ġsource": 2285,
      "Ġmarg": 2286,
      "Ġoffering": 2287,
      "time": 2288,
      "ĠGMT": 2289,
      "75": 2290,
      "atory": 2291,
      "ĠCN": 2292,
      "Ġselling": 2293,
      "Ġloans": 2294,
      "vent": 2295,
      "Ġimmedi": 2296,
      "pping": 2297,
      "Ġfood": 2298,
      "ĠAfric": 2299,
      "Ġbought": 2300,
      "Ġline": 2301,
      "Ġothers": 2302,
      "IM": 2303,
      "ĠâĢĵ": 2304,
      "Ġled": 2305,
      "ĠCON": 2306,
      "On": 2307,
      "Ġsent": 2308,
      "LO": 2309,
      "illed": 2310,
      "Ġjobs": 2311,
      "ico": 2312,
      "Ġsocial": 2313,
      "Ġlate": 2314,
      "Ġ**": 2315,
      "ĠAss": 2316,
      "OUR": 2317,
      "book": 2318,
      "ify": 2319,
      "Ġannual": 2320,
      "ym": 2321,
      "orporation": 2322,
      "100": 2323,
      "Ġofficials": 2324,
      "ious": 2325,
      "tr": 2326,
      "Ġcontent": 2327,
      "Ġcomes": 2328,
      "Ġspecial": 2329,
      "Ġyet": 2330,
      "ume": 2331,
      "sw": 2332,
      "reg": 2333,
      "Ġwa": 2334,
      "eries": 2335,
      "Ġsolutions": 2336,
      "Ġsuggest": 2337,
      "Tr": 2338,
      "Ġgas": 2339,
      "Ġtaxes": 2340,
      "Ġelse": 2341,
      "Ġdev": 2342,
      "Ġstay": 2343,
      "azon": 2344,
      "umb": 2345,
      "ĠCon": 2346,
      "Ġcommunity": 2347,
      "Ġwomen": 2348,
      "RA": 2349,
      "ĠIm": 2350,
      "Ġneeds": 2351,
      "Ġeverything": 2352,
      "care": 2353,
      "Al": 2354,
      "off": 2355,
      "idence": 2356,
      "Ġgeneral": 2357,
      "Ġexpectations": 2358,
      "Ġkey": 2359,
      "put": 2360,
      "Ġvers": 2361,
      "ĠOffic": 2362,
      "24": 2363,
      "Ġdrug": 2364,
      "Ġissues": 2365,
      "aren": 2366,
      "ĠCO": 2367,
      "oti": 2368,
      "ĠAt": 2369,
      "Ġsimp": 2370,
      "Ġbreak": 2371,
      "ĠShe": 2372,
      "âĢĶ": 2373,
      "ãĢĢãĢĢãĢĢãĢĢ": 2374,
      "ĠCanada": 2375,
      "ns": 2376,
      "Ġwent": 2377,
      "vert": 2378,
      "ĠCl": 2379,
      "So": 2380,
      "Ġmom": 2381,
      "TH": 2382,
      "raz": 2383,
      "Ġadditional": 2384,
      "Ġmanufact": 2385,
      "Ġorig": 2386,
      "Ġpolitical": 2387,
      "aring": 2388,
      "Ġcurrently": 2389,
      "ividual": 2390,
      "Edit": 2391,
      "Ġonline": 2392,
      "na": 2393,
      "Ġfig": 2394,
      "ĠWorld": 2395,
      "Ġmo": 2396,
      "Ġ29": 2397,
      "ĠHow": 2398,
      "Ġpretty": 2399,
      "ĠInternational": 2400,
      "Ġlegal": 2401,
      "Ġstore": 2402,
      "rect": 2403,
      "CH": 2404,
      "ĠFed": 2405,
      "omin": 2406,
      "ĠOn": 2407,
      "Ġinsurance": 2408,
      "Ġemer": 2409,
      "29": 2410,
      "ters": 2411,
      "raw": 2412,
      "Ġdetail": 2413,
      "ids": 2414,
      "Ġ26": 2415,
      "Ġve": 2416,
      "Ġmatter": 2417,
      "Ġclass": 2418,
      "Ġlost": 2419,
      "fic": 2420,
      "Ġpo": 2421,
      "ker": 2422,
      "aul": 2423,
      "Ġgold": 2424,
      "Ġschool": 2425,
      "ij": 2426,
      "Ġrele": 2427,
      "unic": 2428,
      "Ġcomb": 2429,
      "ĠMy": 2430,
      "unities": 2431,
      "Ġemployees": 2432,
      "Ġinvestments": 2433,
      "ĠCOM": 2434,
      "Ġbasis": 2435,
      "ĠSept": 2436,
      "ashington": 2437,
      "Ġ+": 2438,
      "Ġshit": 2439,
      "ĠSecurities": 2440,
      "Ġap": 2441,
      "Ġgiven": 2442,
      "ĠOP": 2443,
      "ival": 2444,
      "ceed": 2445,
      "atives": 2446,
      "ĠNot": 2447,
      "Ġspok": 2448,
      "oud": 2449,
      "uel": 2450,
      "Ġquick": 2451,
      "lf": 2452,
      "Ġnational": 2453,
      "Ġexample": 2454,
      "Ġgrowing": 2455,
      "Ġhighest": 2456,
      "Ġdesign": 2457,
      "Ġ21": 2458,
      "Ġapprox": 2459,
      "ories": 2460,
      "abor": 2461,
      "ĠSc": 2462,
      "Ġexchange": 2463,
      "ats": 2464,
      "iversity": 2465,
      "Ġcame": 2466,
      "iam": 2467,
      "ians": 2468,
      "la": 2469,
      "ison": 2470,
      "Ġrelated": 2471,
      "Ġcourt": 2472,
      "riting": 2473,
      "ane": 2474,
      "back": 2475,
      "ĠChr": 2476,
      "mon": 2477,
      "Ġpred": 2478,
      "Ġacquisition": 2479,
      "ĠNo": 2480,
      "Ġbring": 2481,
      "500": 2482,
      "Ġkind": 2483,
      "Ġasset": 2484,
      "CI": 2485,
      "Ġstop": 2486,
      "aster": 2487,
      "Ġ2015": 2488,
      "TA": 2489,
      "omes": 2490,
      "Ġvi": 2491,
      "uman": 2492,
      "Ġinvestor": 2493,
      "Ġrespons": 2494,
      "Ġterms": 2495,
      "Ġnothing": 2496,
      "ĠOfficer": 2497,
      "Ġstep": 2498,
      "ĠNational": 2499,
      "irst": 2500,
      "ĠEn": 2501,
      "300": 2502,
      "Ġindividual": 2503,
      "Ġconsider": 2504,
      "Ġtele": 2505,
      "Ġimprove": 2506,
      "Ġfiscal": 2507,
      "Ġoften": 2508,
      "Ġprofess": 2509,
      "Ġmater": 2510,
      "Ġmust": 2511,
      "Ġaddress": 2512,
      "ĠWest": 2513,
      "Ġparty": 2514,
      "ored": 2515,
      "Ġcontribut": 2516,
      "Ġrecently": 2517,
      "Ġhous": 2518,
      "Ġart": 2519,
      "ecially": 2520,
      "YSE": 2521,
      "Ġsenior": 2522,
      "ĠSen": 2523,
      "Ġcoup": 2524,
      "Ġfinal": 2525,
      "EAR": 2526,
      "UE": 2527,
      "ades": 2528,
      "ĠRussia": 2529,
      "aging": 2530,
      "Ġintern": 2531,
      "Ġspend": 2532,
      "ĠHold": 2533,
      "Ģâ": 2534,
      "Ġland": 2535,
      "Ġhope": 2536,
      "Ġlaws": 2537,
      "Ġidea": 2538,
      "28": 2539,
      "Ġsale": 2540,
      "Ġseason": 2541,
      "ĠDirect": 2542,
      "Ġimmig": 2543,
      "35": 2544,
      "aut": 2545,
      "rial": 2546,
      "viron": 2547,
      "hern": 2548,
      "ĠTrust": 2549,
      "IG": 2550,
      "ortg": 2551,
      "Ġmilitary": 2552,
      "osp": 2553,
      "UAR": 2554,
      "Ġvari": 2555,
      "Ġapproximately": 2556,
      "ĠWashington": 2557,
      "Ġbuilding": 2558,
      "reas": 2559,
      "Ġste": 2560,
      "Ġ2014": 2561,
      "LC": 2562,
      "epend": 2563,
      "acebook": 2564,
      "Ġoptions": 2565,
      "Ġretire": 2566,
      "PR": 2567,
      "Ġbud": 2568,
      "ĠMex": 2569,
      "Ġslow": 2570,
      "ĠGermany": 2571,
      "ftware": 2572,
      "ornia": 2573,
      "Ġcoin": 2574,
      "Ġansw": 2575,
      "ĠBoard": 2576,
      "Ġalong": 2577,
      "90": 2578,
      "2018": 2579,
      "airman": 2580,
      "ondon": 2581,
      "Ġholding": 2582,
      "ĠWhite": 2583,
      "aged": 2584,
      "aign": 2585,
      "ĠPet": 2586,
      "Ġreporting": 2587,
      "Ġcrypto": 2588,
      "edia": 2589,
      "Ġyourself": 2590,
      "arily": 2591,
      "ĠIran": 2592,
      "Ġcommercial": 2593,
      "Ġfirms": 2594,
      "ĠMinister": 2595,
      "Ġexpand": 2596,
      "ected": 2597,
      "Ġnegoti": 2598,
      "Ġside": 2599,
      "ĠAS": 2600,
      "Ġupd": 2601,
      "Ġrange": 2602,
      "Ġconsumer": 2603,
      "ĠAir": 2604,
      "ĠMarket": 2605,
      "Ġpaying": 2606,
      "ĠExecutive": 2607,
      "Ġdigital": 2608,
      "ĠStreet": 2609,
      "Ġsw": 2610,
      "Ġknown": 2611,
      "58": 2612,
      "Ġsituation": 2613,
      "Ġmass": 2614,
      "ĠCorporation": 2615,
      "Ġworkers": 2616,
      "ecess": 2617,
      "Ġclients": 2618,
      "TC": 2619,
      "Ġbegin": 2620,
      "Ġabs": 2621,
      "33": 2622,
      "Ġshareholders": 2623,
      "ips": 2624,
      "Ġentire": 2625,
      "Ġpres": 2626,
      "ĠLondon": 2627,
      "ĠUK": 2628,
      "Ġtech": 2629,
      "room": 2630,
      "ung": 2631,
      "incip": 2632,
      "ĠDavid": 2633,
      "Ġcharg": 2634,
      "ows": 2635,
      "Ġanalysts": 2636,
      "pen": 2637,
      "Ġeffective": 2638,
      "Ġwrong": 2639,
      "Ġelection": 2640,
      "Ġthreat": 2641,
      "ĠAG": 2642,
      "Ġblock": 2643,
      "Ġpositive": 2644,
      "ĠTHE": 2645,
      "Ġplease": 2646,
      "ĠRel": 2647,
      "ĠSte": 2648,
      "ĠCNBC": 2649,
      "Ġadjust": 2650,
      "ĠJust": 2651,
      "Ġchall": 2652,
      "full": 2653,
      "ĠSunday": 2654,
      "ĠCalifornia": 2655,
      "CO": 2656,
      "Ġhuge": 2657,
      "Ġcity": 2658,
      "etary": 2659,
      "Ġcause": 2660,
      "ubl": 2661,
      "Ġpartners": 2662,
      "Ġcampaign": 2663,
      "Ġident": 2664,
      "ESS": 2665,
      "tm": 2666,
      "ama": 2667,
      "Ġexist": 2668,
      "gency": 2669,
      "my": 2670,
      "oogle": 2671,
      "Ġincreasing": 2672,
      "fin": 2673,
      "Ġbook": 2674,
      "ibility": 2675,
      "Ġ500": 2676,
      "Ġdeliver": 2677,
      "Ġlat": 2678,
      "Ġeither": 2679,
      "Ġlit": 2680,
      "Ġsoon": 2681,
      "Ġfinance": 2682,
      "jects": 2683,
      "earch": 2684,
      "vironment": 2685,
      "55": 2686,
      "acts": 2687,
      "Ġtrust": 2688,
      "Ġfun": 2689,
      "ĠBar": 2690,
      "Ġtrack": 2691,
      "Ġshowed": 2692,
      "ĠApple": 2693,
      "Ġprem": 2694,
      "Ġspokes": 2695,
      "obile": 2696,
      "Ġadvis": 2697,
      "ev": 2698,
      "Ġinnov": 2699,
      "Ġboost": 2700,
      "chang": 2701,
      "Ġadministration": 2702,
      "ocurren": 2703,
      "ĠAb": 2704,
      "Com": 2705,
      "Ġsources": 2706,
      "ĠOct": 2707,
      "reut": 2708,
      "Ġbal": 2709,
      "Ġcoal": 2710,
      "LY": 2711,
      "View": 2712,
      "Ġesp": 2713,
      "Ġgoes": 2714,
      "Ġsubs": 2715,
      "Ġdrop": 2716,
      "by": 2717,
      "ĠSEC": 2718,
      "Ġrole": 2719,
      "reddit": 2720,
      "Ġautom": 2721,
      "oid": 2722,
      "Ġrepresent": 2723,
      "Ġagreement": 2724,
      "rip": 2725,
      "Ġround": 2726,
      "ĠSeptember": 2727,
      "Ġsav": 2728,
      "Ġthin": 2729,
      "Ġthought": 2730,
      "Ġbo": 2731,
      "Ġstates": 2732,
      "They": 2733,
      "34": 2734,
      "Ġfav": 2735,
      "ĠON": 2736,
      "nergy": 2737,
      "To": 2738,
      "Ġcourse": 2739,
      "icular": 2740,
      "ĠQu": 2741,
      "Ġinfl": 2742,
      "lymp": 2743,
      "ĠĠĠĊ": 2744,
      "Ġinterview": 2745,
      "26": 2746,
      "Ġvehic": 2747,
      "!!": 2748,
      "Ġcomments": 2749,
      "Ġrather": 2750,
      "ĠEconom": 2751,
      "Ġregard": 2752,
      "witter": 2753,
      "Ġbull": 2754,
      "ĠSw": 2755,
      "Ġdeclin": 2756,
      "AM": 2757,
      "Ġdollars": 2758,
      "ideo": 2759,
      "CT": 2760,
      "rast": 2761,
      "amed": 2762,
      "Ġdate": 2763,
      "ĠFund": 2764,
      "Ġred": 2765,
      "Ġpersonal": 2766,
      "aps": 2767,
      "Ġwhole": 2768,
      "Ġhost": 2769,
      "Ġarea": 2770,
      "Ġlevels": 2771,
      "Ġuncertain": 2772,
      "Ġill": 2773,
      "Ġwatch": 2774,
      "Ġach": 2775,
      "uly": 2776,
      "Ġmember": 2777,
      "ĠAmazon": 2778,
      "ittee": 2779,
      "27": 2780,
      "Ġannounce": 2781,
      "Ġweb": 2782,
      "ĠSP": 2783,
      "ĠOlymp": 2784,
      "ĠMich": 2785,
      "NYSE": 2786,
      "Ġremain": 2787,
      "ATE": 2788,
      "ĠMor": 2789,
      "Ġlonger": 2790,
      "amb": 2791,
      "Ġtalk": 2792,
      "Ġcoun": 2793,
      "Ġquality": 2794,
      "Ġrev": 2795,
      "uted": 2796,
      "ĠMac": 2797,
      "IR": 2798,
      "ĠMr": 2799,
      "Ġdil": 2800,
      "LE": 2801,
      "Ġmer": 2802,
      "Ġreac": 2803,
      "ots": 2804,
      "ĠIS": 2805,
      "Ġgain": 2806,
      "ĠUnion": 2807,
      "Ġrules": 2808,
      "ession": 2809,
      "Ġconditions": 2810,
      "Ġleave": 2811,
      "Ġpract": 2812,
      "Ġanyone": 2813,
      "Ġcheck": 2814,
      "Ġren": 2815,
      "dle": 2816,
      "key": 2817,
      "Ġasked": 2818,
      "ĠAT": 2819,
      "rict": 2820,
      "Ġfight": 2821,
      "UP": 2822,
      "Ġseems": 2823,
      "ĠWall": 2824,
      "Ġvote": 2825,
      "ĠGen": 2826,
      "Ġcontract": 2827,
      "rench": 2828,
      "ĠIndia": 2829,
      "ĠÂ": 2830,
      "OND": 2831,
      "imin": 2832,
      "Ġsavings": 2833,
      "Ġtaken": 2834,
      "Ġvia": 2835,
      "Ġimmediately": 2836,
      "Ġactual": 2837,
      "htm": 2838,
      "Ġvict": 2839,
      "Ġparticular": 2840,
      "45": 2841,
      "ortgage": 2842,
      "emp": 2843,
      "Ġraise": 2844,
      "da": 2845,
      "Ġgoal": 2846,
      "fully": 2847,
      "though": 2848,
      "Ġespecially": 2849,
      "Ġpull": 2850,
      "use": 2851,
      "Ġpressure": 2852,
      "Ġ%": 2853,
      "ises": 2854,
      "Ġaim": 2855,
      "Ġeduc": 2856,
      "Ġprim": 2857,
      "ancing": 2858,
      "Ġcustomer": 2859,
      "Ġname": 2860,
      "Ġden": 2861,
      "Ġ=": 2862,
      "ĠCong": 2863,
      "ĠGo": 2864,
      "ĠSan": 2865,
      "And": 2866,
      "TR": 2867,
      "Ġ70": 2868,
      "Ġreturns": 2869,
      "Ġovers": 2870,
      "reng": 2871,
      "uclear": 2872,
      "AB": 2873,
      "Ġcontinued": 2874,
      "Sh": 2875,
      "Ġnetwork": 2876,
      "Ġinstitut": 2877,
      "ĠWith": 2878,
      "Ġopportunity": 2879,
      "invest": 2880,
      "Ġliving": 2881,
      "reme": 2882,
      "Ġadvice": 2883,
      "Ġleadership": 2884,
      "ĠThomson": 2885,
      "37": 2886,
      "Ġarg": 2887,
      "wide": 2888,
      "Ġoutside": 2889,
      "ĠUniversity": 2890,
      "88": 2891,
      "fort": 2892,
      "rest": 2893,
      "ĠNEW": 2894,
      "idi": 2895,
      "ĠServ": 2896,
      "Ġpolice": 2897,
      "Ad": 2898,
      "Ġfix": 2899,
      "Ġcrude": 2900,
      "Ġlose": 2901,
      "iff": 2902,
      "99": 2903,
      "Ġcorrect": 2904,
      "ĠSAYS": 2905,
      "come": 2906,
      "Ġcy": 2907,
      "ĠExchange": 2908,
      "Ġcryptocurren": 2909,
      "AG": 2910,
      "empt": 2911,
      "Ġbudget": 2912,
      "ars": 2913,
      "36": 2914,
      "Ġsoftware": 2915,
      "2017": 2916,
      "Ġrecomm": 2917,
      "Ġsecurities": 2918,
      "âĢĿ.": 2919,
      "Ġaction": 2920,
      "ĠPartners": 2921,
      "Ġrequire": 2922,
      "Ġmargin": 2923,
      "Ġtra": 2924,
      "Ġunit": 2925,
      "Ġalleg": 2926,
      "anks": 2927,
      "itcoin": 2928,
      "ĠEng": 2929,
      "ficult": 2930,
      "Ġcaus": 2931,
      "erious": 2932,
      "My": 2933,
      "iple": 2934,
      "Ġexpenses": 2935,
      "isis": 2936,
      "ĠBre": 2937,
      "Ġcreate": 2938,
      "ĠSch": 2939,
      "Ġlosses": 2940,
      "ael": 2941,
      "Ġpresent": 2942,
      "Ġview": 2943,
      "Ġchildren": 2944,
      "Ġdeep": 2945,
      "Ġrising": 2946,
      "ĠHealth": 2947,
      "Ġprotest": 2948,
      "ĠTur": 2949,
      "Ġton": 2950,
      "ĠBritish": 2951,
      "now": 2952,
      "Ġlove": 2953,
      "Ġvot": 2954,
      "Ġregion": 2955,
      "Ġinstead": 2956,
      "gether": 2957,
      "eople": 2958,
      "Ġtogether": 2959,
      "Ġexecut": 2960,
      "Ġmatch": 2961,
      "Ġthous": 2962,
      "Ġindepend": 2963,
      "ructure": 2964,
      "Ġconn": 2965,
      "Ġbenefits": 2966,
      "Ġmoment": 2967,
      "ele": 2968,
      "Ġsum": 2969,
      "ading": 2970,
      "ĠWill": 2971,
      "ĠDepartment": 2972,
      "ences": 2973,
      "Ġrights": 2974,
      "Ġdifficult": 2975,
      "Ġreflect": 2976,
      "used": 2977,
      "38": 2978,
      "Ġaccounts": 2979,
      "oman": 2980,
      "ogn": 2981,
      "Ġapplic": 2982,
      "ĠPer": 2983,
      "ĠEnergy": 2984,
      "Ġaren": 2985,
      "ooks": 2986,
      "Ġocc": 2987,
      "ĠFacebook": 2988,
      "Ġfunding": 2989,
      "Ġparticip": 2990,
      "AAP": 2991,
      "Ġdefin": 2992,
      "Ġstudy": 2993,
      "Ġoriginal": 2994,
      "News": 2995,
      "Ġ60": 2996,
      "tain": 2997,
      "ye": 2998,
      "Ġnumbers": 2999,
      "ĠOpen": 3000,
      "Ġcal": 3001,
      "Ġability": 3002,
      "Ġcharge": 3003,
      "ĠWhat": 3004,
      "iquid": 3005,
      "entially": 3006,
      "Ġneeded": 3007,
      "Ġfactors": 3008,
      "uing": 3009,
      "ijing": 3010,
      "44": 3011,
      "Ġmedical": 3012,
      "ĠGME": 3013,
      "makers": 3014,
      "ature": 3015,
      "Ġreach": 3016,
      "oe": 3017,
      "berg": 3018,
      "Ġ27": 3019,
      "arr": 3020,
      "Ġenvironment": 3021,
      "EST": 3022,
      "Ġdesc": 3023,
      "ĠCommission": 3024,
      "ĠItal": 3025,
      "aily": 3026,
      "ided": 3027,
      "Ġstreng": 3028,
      "Ġwanted": 3029,
      "Ġcouple": 3030,
      "Ġmarketing": 3031,
      "Ġassum": 3032,
      "ASH": 3033,
      "Ġeuros": 3034,
      "aturday": 3035,
      "Ġbrand": 3036,
      "ðŁļ": 3037,
      "IP": 3038,
      "Ġreb": 3039,
      "ĠOctober": 3040,
      "Ġtyp": 3041,
      "ani": 3042,
      "anced": 3043,
      "Ġrequest": 3044,
      "augh": 3045,
      "iver": 3046,
      "Ġrelationship": 3047,
      "OC": 3048,
      "den": 3049,
      "Ġrespond": 3050,
      "oring": 3051,
      "ĠInt": 3052,
      "Ġhop": 3053,
      "mark": 3054,
      "Ġpubl": 3055,
      "Ġspecific": 3056,
      "INGS": 3057,
      "html": 3058,
      "Be": 3059,
      "Ġindic": 3060,
      "Ġquestions": 3061,
      "isions": 3062,
      "Ġworked": 3063,
      "icro": 3064,
      "ĠSyr": 3065,
      "Ġord": 3066,
      "ĠGerman": 3067,
      "ĠSaturday": 3068,
      "aving": 3069,
      "ĠFrance": 3070,
      "Ġsqu": 3071,
      "Ġareas": 3072,
      "Ġwants": 3073,
      "Ġdirector": 3074,
      "ĠLLC": 3075,
      "Ġdam": 3076,
      "Ġsus": 3077,
      "ĠCont": 3078,
      "Ġevents": 3079,
      "Ġeasy": 3080,
      "ðŁļĢ": 3081,
      "Ġten": 3082,
      "Ġhistory": 3083,
      "Ġhot": 3084,
      "Ġsubject": 3085,
      "ĠThese": 3086,
      "ĠAfrica": 3087,
      "irc": 3088,
      "rael": 3089,
      "Ġpreviously": 3090,
      "ĠEXP": 3091,
      "How": 3092,
      "imate": 3093,
      "Ġhelped": 3094,
      "Ġbanking": 3095,
      "Ġbehind": 3096,
      "Ġhuman": 3097,
      "77": 3098,
      "ĠMexico": 3099,
      "che": 3100,
      "like": 3101,
      "Ġmor": 3102,
      "elt": 3103,
      "ript": 3104,
      "Ġface": 3105,
      "ently": 3106,
      "Ġdrive": 3107,
      "Ġsett": 3108,
      "%,": 3109,
      "ett": 3110,
      "\\_": 3111,
      "lines": 3112,
      "ĠAP": 3113,
      "lor": 3114,
      "sp": 3115,
      "Ġprojects": 3116,
      "Ġaddition": 3117,
      "ĠEm": 3118,
      "Ġforecast": 3119,
      "ĠPol": 3120,
      "ĠGu": 3121,
      "Ġtransaction": 3122,
      "eal": 3123,
      "af": 3124,
      "Ġcrisis": 3125,
      "egr": 3126,
      "Ġagreed": 3127,
      "ĠâĢĺ": 3128,
      "ruction": 3129,
      "Ġsense": 3130,
      "Ġowners": 3131,
      "MENT": 3132,
      "Ġ28": 3133,
      "Ġanswer": 3134,
      "Ġfocused": 3135,
      "omest": 3136,
      "ĠFrench": 3137,
      "itted": 3138,
      "ĠMark": 3139,
      "What": 3140,
      "imb": 3141,
      "ourn": 3142,
      "Ġhttps": 3143,
      "ĠFederal": 3144,
      "Ġnote": 3145,
      "Ġlearn": 3146,
      "Ġcard": 3147,
      "ĠChrist": 3148,
      "Ġstory": 3149,
      "ĠBE": 3150,
      "Ġpartner": 3151,
      "ospital": 3152,
      "ilt": 3153,
      "ĠYEAR": 3154,
      "Ġavoid": 3155,
      "istry": 3156,
      "rastructure": 3157,
      "ĠEN": 3158,
      "Ġpayment": 3159,
      "Ġmis": 3160,
      "ysis": 3161,
      "With": 3162,
      "otal": 3163,
      "Ġprovides": 3164,
      "Ġpurchase": 3165,
      "Ġreform": 3166,
      "Ġnuclear": 3167,
      "Ġyuan": 3168,
      "Ġworks": 3169,
      "Ġlatest": 3170,
      "Our": 3171,
      "ECT": 3172,
      "Ġediting": 3173,
      "ĠTrans": 3174,
      "ĠInst": 3175,
      "BE": 3176,
      "Ġnation": 3177,
      "quart": 3178,
      "Ġhowever": 3179,
      "Ġsaw": 3180,
      "Ġdivers": 3181,
      "Ġraised": 3182,
      "ese": 3183,
      "46": 3184,
      "Ġur": 3185,
      "Ġhon": 3186,
      "Ġadding": 3187,
      "do": 3188,
      "Ġpick": 3189,
      "Ġemail": 3190,
      "ĠWhen": 3191,
      "Ġagency": 3192,
      "Ġbitcoin": 3193,
      "Un": 3194,
      "Ġprofessional": 3195,
      "Ġintegr": 3196,
      "Ġbonds": 3197,
      "Ġhousing": 3198,
      "At": 3199,
      "ault": 3200,
      "illing": 3201,
      "ĠMer": 3202,
      "Ġheav": 3203,
      "Ġsmart": 3204,
      "ĠImages": 3205,
      "abl": 3206,
      "Ġyoung": 3207,
      "ocu": 3208,
      "Ġluck": 3209,
      "Ġeffect": 3210,
      "Ġdepos": 3211,
      "95": 3212,
      "AD": 3213,
      "amer": 3214,
      "reci": 3215,
      "ule": 3216,
      "ĠCity": 3217,
      "Ġchar": 3218,
      "Ġarr": 3219,
      "When": 3220,
      "Ġreview": 3221,
      "istic": 3222,
      "Ġconfir": 3223,
      "cap": 3224,
      "ctions": 3225,
      "selves": 3226,
      "gree": 3227,
      "Ġhealthcare": 3228,
      "xit": 3229,
      "Ġnorm": 3230,
      "ills": 3231,
      "Ġnecess": 3232,
      "Ġmind": 3233,
      "ĠManagement": 3234,
      "Ġmortgage": 3235,
      "Ġefforts": 3236,
      "unications": 3237,
      "ĠGold": 3238,
      "Ġoverall": 3239,
      "Ġreceived": 3240,
      "Ġreduce": 3241,
      "Ġstat": 3242,
      "Ġself": 3243,
      "Ġrecogn": 3244,
      "Ġcareer": 3245,
      "arent": 3246,
      "Ġfast": 3247,
      "ience": 3248,
      "ĠDo": 3249,
      "ey": 3250,
      "ension": 3251,
      "Ġincludes": 3252,
      "ĠCongress": 3253,
      "BS": 3254,
      "Ġsan": 3255,
      "Ġsave": 3256,
      "echnologies": 3257,
      "Ġspeak": 3258,
      "Ġshutdown": 3259,
      "Ġfuck": 3260,
      "imum": 3261,
      "ĠKorean": 3262,
      "Ġdeclined": 3263,
      "Ġrat": 3264,
      "ege": 3265,
      "rem": 3266,
      "Ġfield": 3267,
      "ĠUN": 3268,
      "Ġafford": 3269,
      "Ġbi": 3270,
      "Ġsafe": 3271,
      "Ġhappy": 3272,
      "Ph": 3273,
      "Ġaud": 3274,
      "Ġliquid": 3275,
      "Ġut": 3276,
      "Ġmajority": 3277,
      "Ġâ": 3278,
      "how": 3279,
      "Ġpan": 3280,
      "ination": 3281,
      "Ġdesp": 3282,
      "Ġengine": 3283,
      "Ġconcerns": 3284,
      "no": 3285,
      "ĠPar": 3286,
      "Ġviol": 3287,
      "Ġtravel": 3288,
      "Ġprotect": 3289,
      "Ġmanager": 3290,
      "oice": 3291,
      "Ġstarting": 3292,
      "Ġproblems": 3293,
      "Ġclosed": 3294,
      "Ġsex": 3295,
      "Ġphone": 3296,
      "ugg": 3297,
      "ĠETF": 3298,
      "Ġbarrel": 3299,
      "Ġ...": 3300,
      "alk": 3301,
      "ĠIT": 3302,
      "Ġexpects": 3303,
      "Ġcover": 3304,
      "Ġens": 3305,
      "Ġpositions": 3306,
      "ĠIsrael": 3307,
      "Ġstuff": 3308,
      "ĠRES": 3309,
      "65": 3310,
      "OUN": 3311,
      "Ġage": 3312,
      "ĠTreas": 3313,
      "Ġbroker": 3314,
      "onom": 3315,
      "ĠRich": 3316,
      "izing": 3317,
      "yond": 3318,
      "ĶĢâ": 3319,
      "Ġfair": 3320,
      "ĠCol": 3321,
      "iring": 3322,
      "Ġcle": 3323,
      "Ġmention": 3324,
      "Ġbeat": 3325,
      "ressed": 3326,
      "Ġmess": 3327,
      "ĠOne": 3328,
      "Ġenj": 3329,
      "ITH": 3330,
      "Ġeffic": 3331,
      "osition": 3332,
      "Ġhed": 3333,
      "ĠGoogle": 3334,
      "Ġopportunities": 3335,
      "ĠPH": 3336,
      "Ġsystems": 3337,
      "Ġlink": 3338,
      "lying": 3339,
      "ively": 3340,
      "ĠREV": 3341,
      "ches": 3342,
      "Ġserious": 3343,
      "Ġenter": 3344,
      "ĠRussian": 3345,
      "Ġsuper": 3346,
      "ĠSE": 3347,
      "ĠGlobal": 3348,
      "VER": 3349,
      "Ġtou": 3350,
      "oto": 3351,
      "Ġaccept": 3352,
      "INESS": 3353,
      "ĠRelations": 3354,
      "Newswire": 3355,
      "omestic": 3356,
      "Ġassoci": 3357,
      "pper": 3358,
      "Ġgets": 3359,
      "Ġincluded": 3360,
      "USINESS": 3361,
      "Ġlegis": 3362,
      "ials": 3363,
      "ĠStock": 3364,
      "ORE": 3365,
      "Ġkids": 3366,
      "Ġmobile": 3367,
      "Ġprofits": 3368,
      "ĠHoldings": 3369,
      "where": 3370,
      "str": 3371,
      "49": 3372,
      "Ġfriends": 3373,
      "39": 3374,
      "ĠEST": 3375,
      "Ġdead": 3376,
      "cont": 3377,
      "Ġpredict": 3378,
      "Ġindustrial": 3379,
      "lam": 3380,
      "ears": 3381,
      "ĠKong": 3382,
      "Ġusers": 3383,
      "PS": 3384,
      "Ġmultiple": 3385,
      "Ġminister": 3386,
      "Ġmeaning": 3387,
      "atever": 3388,
      "Ġdescrib": 3389,
      "Ġtour": 3390,
      "Ġreporters": 3391,
      "ROM": 3392,
      "Ġjump": 3393,
      "Ġchance": 3394,
      "set": 3395,
      "ĠTwitter": 3396,
      "Ġquite": 3397,
      "Ġmoving": 3398,
      "CB": 3399,
      "RS": 3400,
      "Ġserved": 3401,
      "Ġmark": 3402,
      "rop": 3403,
      "Ġappoint": 3404,
      "Ġdespite": 3405,
      "Ġbase": 3406,
      "Ġhy": 3407,
      "Ġdividends": 3408,
      "Ġbalance": 3409,
      "Ġ01": 3410,
      "Ġattack": 3411,
      "01": 3412,
      "Ġmaybe": 3413,
      "Ġdetails": 3414,
      "ONDON": 3415,
      "Ġtrue": 3416,
      "Ġnegative": 3417,
      "Ġstrategic": 3418,
      "PRNewswire": 3419,
      "Ġcannot": 3420,
      "Ġstake": 3421,
      "Ġexact": 3422,
      "emic": 3423,
      "47": 3424,
      "Ġlog": 3425,
      "Ġenc": 3426,
      "ĠBy": 3427,
      "undred": 3428,
      "Ġinfrastructure": 3429,
      "Ġtakes": 3430,
      "chain": 3431,
      "Ġimmigration": 3432,
      "nings": 3433,
      "ze": 3434,
      "ĠMel": 3435,
      "Ġdistribution": 3436,
      "ĠWITH": 3437,
      "Ġversion": 3438,
      "Ġdiluted": 3439,
      "Ġwater": 3440,
      "Ġcur": 3441,
      "Ġcreat": 3442,
      "raft": 3443,
      "Ġopin": 3444,
      "Ġgroups": 3445,
      "ero": 3446,
      "hers": 3447,
      "Ġ90": 3448,
      "Ġabsolut": 3449,
      "Ġtren": 3450,
      "Ġexpert": 3451,
      "Ġyields": 3452,
      "48": 3453,
      "oke": 3454,
      "Ġhighly": 3455,
      "Ġrelative": 3456,
      "Ġguid": 3457,
      "ellig": 3458,
      "ery": 3459,
      "ĠBer": 3460,
      "Ġspace": 3461,
      "ĠAsia": 3462,
      "ĠAustralian": 3463,
      "Ġspent": 3464,
      "Invest": 3465,
      "roll": 3466,
      "Ġwouldn": 3467,
      "Ġcontr": 3468,
      "ĠSenate": 3469,
      "Ġspokesman": 3470,
      "IA": 3471,
      "ires": 3472,
      "Ġwide": 3473,
      "ĠBRI": 3474,
      "Ġpoor": 3475,
      "ĠEl": 3476,
      "%.": 3477,
      "PO": 3478,
      "ledge": 3479,
      "Ġproviding": 3480,
      "ĠETH": 3481,
      "Trump": 3482,
      "Ġadvant": 3483,
      "Ġinflu": 3484,
      "aces": 3485,
      "Ġdecre": 3486,
      "Ġextra": 3487,
      "66": 3488,
      "iet": 3489,
      "Ġseven": 3490,
      "Ġlimited": 3491,
      "ĠAustralia": 3492,
      "Ġdaily": 3493,
      "uru": 3494,
      "ural": 3495,
      "ĠCentral": 3496,
      "arents": 3497,
      "Ġfees": 3498,
      "ĠBILLION": 3499,
      "While": 3500,
      "eff": 3501,
      "ender": 3502,
      "Ġ80": 3503,
      "Ġhistor": 3504,
      "yle": 3505,
      "31": 3506,
      "TO": 3507,
      "Ġgiving": 3508,
      "ournal": 3509,
      "TON": 3510,
      "erally": 3511,
      "vey": 3512,
      "Ġconv": 3513,
      "Ġspread": 3514,
      "ĠCanadian": 3515,
      "Ġinj": 3516,
      "ĠSm": 3517,
      "ĠCr": 3518,
      "Ġpatients": 3519,
      "month": 3520,
      "asons": 3521,
      "Ġflow": 3522,
      "Ġmodel": 3523,
      "gl": 3524,
      "ĠHong": 3525,
      "itely": 3526,
      "Ġlaunch": 3527,
      "ĠBRIEF": 3528,
      "Ġbid": 3529,
      "ĠFIN": 3530,
      "oses": 3531,
      "Ġtechn": 3532,
      "Ġfire": 3533,
      "aries": 3534,
      "Ġwebcast": 3535,
      "ditional": 3536,
      "UD": 3537,
      "Ġu": 3538,
      "ĠDr": 3539,
      "Ġprovider": 3540,
      "Ġsepar": 3541,
      "Ġlawy": 3542,
      "Ġitself": 3543,
      "Ġposts": 3544,
      "ening": 3545,
      "Ġpers": 3546,
      "Ġded": 3547,
      "Ġnight": 3548,
      "ems": 3549,
      "ĠBrexit": 3550,
      "57": 3551,
      "By": 3552,
      "Don": 3553,
      "UM": 3554,
      "Ġapproach": 3555,
      "ĠFY": 3556,
      "Ġgrand": 3557,
      "audi": 3558,
      "ĠCH": 3559,
      "Ġhur": 3560,
      "Ġroom": 3561,
      "ification": 3562,
      "arb": 3563,
      "ms": 3564,
      "Ġflo": 3565,
      "ĠBro": 3566,
      "armac": 3567,
      "Ġdecades": 3568,
      "hood": 3569,
      "Ġinvested": 3570,
      "Ġexpensive": 3571,
      "ology": 3572,
      "ĠRepublican": 3573,
      "atural": 3574,
      "Ġprogress": 3575,
      "ĠVice": 3576,
      "Ġtreatment": 3577,
      "Ġmen": 3578,
      "Ġoutl": 3579,
      "56": 3580,
      "DP": 3581,
      "Ġlif": 3582,
      "ours": 3583,
      "rent": 3584,
      "ĠDemocrats": 3585,
      "uk": 3586,
      "ĠAut": 3587,
      "Ġfutures": 3588,
      "Ġusually": 3589,
      "BO": 3590,
      "business": 3591,
      "Ġ2019": 3592,
      "ĠAnge": 3593,
      "Ġretirement": 3594,
      "ales": 3595,
      "oming": 3596,
      "Ġstaff": 3597,
      "Ġwhose": 3598,
      "Ġpayments": 3599,
      "Ġrich": 3600,
      "uit": 3601,
      "ague": 3602,
      "ucking": 3603,
      "pril": 3604,
      "ya": 3605,
      "ham": 3606,
      "Ġpaper": 3607,
      "Ġthinking": 3608,
      "Ġ2020": 3609,
      "One": 3610,
      "Ġtowards": 3611,
      "Ġdip": 3612,
      "ĠSome": 3613,
      "cell": 3614,
      "ruption": 3615,
      "Ġthousands": 3616,
      "atic": 3617,
      "OP": 3618,
      "ĠðŁ": 3619,
      "Ġpoll": 3620,
      "Ġrecommend": 3621,
      "Ġcand": 3622,
      "Ġquickly": 3623,
      "Ġoption": 3624,
      "Ġconsumers": 3625,
      "59": 3626,
      "Ġlooks": 3627,
      "Ġgave": 3628,
      "comp": 3629,
      "ĠEAR": 3630,
      "ĠJune": 3631,
      "Ġmassive": 3632,
      "Ġjud": 3633,
      "lia": 3634,
      "ikes": 3635,
      "OURCE": 3636,
      "OLD": 3637,
      "Ġtit": 3638,
      "rote": 3639,
      "Ġbelie": 3640,
      "Ġtalking": 3641,
      "Ġ35": 3642,
      "Ġmonetary": 3643,
      "Ġfiled": 3644,
      "Ġauthorities": 3645,
      "Ġli": 3646,
      "irt": 3647,
      "Ġanalysis": 3648,
      "Ġexisting": 3649,
      "omb": 3650,
      "ute": 3651,
      "Ġhundred": 3652,
      "comments": 3653,
      "Ġcars": 3654,
      "Ġregulatory": 3655,
      "âĢĿ,": 3656,
      "Ġwall": 3657,
      "Ġwilling": 3658,
      "Ġcurrencies": 3659,
      "LONDON": 3660,
      "ĠStand": 3661,
      "standing": 3662,
      "ĠFROM": 3663,
      "Ġconsist": 3664,
      "Ġposted": 3665,
      "there": 3666,
      "ĠPrime": 3667,
      "SOURCE": 3668,
      "ston": 3669,
      "Ġbeyond": 3670,
      "ĠDEC": 3671,
      "ĠVal": 3672,
      "Ġdial": 3673,
      "Ġinvolved": 3674,
      "Ġinvestig": 3675,
      "ĠDavos": 3676,
      "mit": 3677,
      "ental": 3678,
      "abilities": 3679,
      "Ġrunning": 3680,
      "Ġwrote": 3681,
      "RAN": 3682,
      "Ġreached": 3683,
      "Ġsanctions": 3684,
      "\".": 3685,
      "Ġdocu": 3686,
      "Ġthemselves": 3687,
      "Ġconsult": 3688,
      "aur": 3689,
      "ĠNET": 3690,
      "AX": 3691,
      "rought": 3692,
      "EMENT": 3693,
      "aint": 3694,
      "Ġsuccessful": 3695,
      "oph": 3696,
      "Ġtrillion": 3697,
      "Ġsurpr": 3698,
      "Ġcuts": 3699,
      "Ġborrow": 3700,
      "Ġenjoy": 3701,
      "uy": 3702,
      "ĠForm": 3703,
      "DAQ": 3704,
      "retary": 3705,
      "Ġsimply": 3706,
      "Ġmoder": 3707,
      "eth": 3708,
      "ĠPal": 3709,
      "ĠNow": 3710,
      "ĠOb": 3711,
      "Ġkilled": 3712,
      "Ġgoods": 3713,
      "Ġproperties": 3714,
      "ĠGeneral": 3715,
      "Ġdecade": 3716,
      "Ġfully": 3717,
      "engal": 3718,
      "Ġwage": 3719,
      "Ġvideo": 3720,
      "Ġvolat": 3721,
      "ĶĢâĶĢâ": 3722,
      "Ġcents": 3723,
      "Ġcirc": 3724,
      "Ġclin": 3725,
      "Ġways": 3726,
      "vere": 3727,
      "Ġstar": 3728,
      "Ġextreme": 3729,
      "Ġpush": 3730,
      "ĠAC": 3731,
      "ĠUP": 3732,
      "Also": 3733,
      "enced": 3734,
      "ara": 3735,
      "arant": 3736,
      "ASDAQ": 3737,
      "ĠWILL": 3738,
      "orter": 3739,
      "Ġestabl": 3740,
      "ĠHowever": 3741,
      "Ġanti": 3742,
      "Ġwind": 3743,
      "olid": 3744,
      "ios": 3745,
      "Ġprep": 3746,
      "Ġowned": 3747,
      "Ġheadquart": 3748,
      "clus": 3749,
      "rom": 3750,
      "Ġfuel": 3751,
      "Ġcalls": 3752,
      "Ġcompl": 3753,
      "ĠHead": 3754,
      "ĠFranc": 3755,
      "Some": 3756,
      "ĠAD": 3757,
      "Ġjoint": 3758,
      "Ġcompetition": 3759,
      "Ġeducation": 3760,
      "sy": 3761,
      "ĠIM": 3762,
      "ĠApril": 3763,
      "ĠEd": 3764,
      "Ġquarterly": 3765,
      "Ġpurp": 3766,
      "Ġple": 3767,
      "Ġwhatever": 3768,
      "Ġfigure": 3769,
      "Ġmorning": 3770,
      "liament": 3771,
      "ament": 3772,
      "Ġdomestic": 3773,
      "ĠSing": 3774,
      "ĠBitcoin": 3775,
      "Ġattract": 3776,
      "encies": 3777,
      "Ġhospital": 3778,
      "Ġmyself": 3779,
      "Ġprovided": 3780,
      "Ġzone": 3781,
      "rele": 3782,
      "Ġnice": 3783,
      "Ġcomput": 3784,
      "....": 3785,
      "ensive": 3786,
      "ened": 3787,
      "Ġclosing": 3788,
      "Ġestimates": 3789,
      "Ġwords": 3790,
      "Ġregular": 3791,
      "Ġsolid": 3792,
      "Ġmeasures": 3793,
      "ĠMichael": 3794,
      "ole": 3795,
      "Ġserve": 3796,
      "Ġinitial": 3797,
      "home": 3798,
      "Ġfront": 3799,
      "ĠEARN": 3800,
      "iant": 3801,
      "Ġdeath": 3802,
      "unch": 3803,
      "razil": 3804,
      "Ġindependent": 3805,
      "engaluru": 3806,
      "ĠMid": 3807,
      "Ġcharges": 3808,
      "Ġpremium": 3809,
      "ĠGet": 3810,
      "ibly": 3811,
      "ITY": 3812,
      "ring": 3813,
      "ĠCons": 3814,
      "ĠAL": 3815,
      "Ġhaven": 3816,
      "Ġrob": 3817,
      "Ġparents": 3818,
      "Ġmax": 3819,
      "Ġstra": 3820,
      "Ġsaf": 3821,
      "Ġofficer": 3822,
      "Ġseries": 3823,
      "Ġpurs": 3824,
      "Ġgames": 3825,
      "Ġremains": 3826,
      "Ġchamp": 3827,
      "Ġelectric": 3828,
      "ĠSays": 3829,
      "ORK": 3830,
      "ique": 3831,
      "Ġdeterm": 3832,
      "Ġwait": 3833,
      "Ġsust": 3834,
      "Ġweak": 3835,
      "Ġhappened": 3836,
      "Ġcritic": 3837,
      "Ġlimit": 3838,
      "rants": 3839,
      "wor": 3840,
      "wise": 3841,
      "Ġoffers": 3842,
      "Ġknowledge": 3843,
      "quarter": 3844,
      "Ġwasn": 3845,
      "END": 3846,
      "ĠGe": 3847,
      "ĠPaul": 3848,
      "Ġinvestigation": 3849,
      "Ġachieve": 3850,
      "ĠTreasury": 3851,
      "gn": 3852,
      "ĠMe": 3853,
      "Ġpric": 3854,
      "ino": 3855,
      "ush": 3856,
      "Ġtransfer": 3857,
      "olution": 3858,
      "daq": 3859,
      "Ġwife": 3860,
      "ĠEARNINGS": 3861,
      "ME": 3862,
      "ourt": 3863,
      "Ġshows": 3864,
      "ĠRichard": 3865,
      "ein": 3866,
      "ĠReg": 3867,
      "Ġcode": 3868,
      "Ġrequired": 3869,
      "equ": 3870,
      "asdaq": 3871,
      "Ġones": 3872,
      "ĠWIRE": 3873,
      "ĠServices": 3874,
      "08": 3875,
      "perform": 3876,
      "osure": 3877,
      "Ġoptim": 3878,
      "CES": 3879,
      "overy": 3880,
      "Comp": 3881,
      "ĠWilliam": 3882,
      "ma": 3883,
      "onse": 3884,
      "employ": 3885,
      "IVE": 3886,
      "ĠAssoci": 3887,
      "Ġsubsidi": 3888,
      "Ġfavor": 3889,
      "ĠREVEN": 3890,
      "ounded": 3891,
      "Ġincreases": 3892,
      "Ġslight": 3893,
      "Ġactivity": 3894,
      "Ġdouble": 3895,
      "ken": 3896,
      "zer": 3897,
      "Ġbuilt": 3898,
      "ANG": 3899,
      "force": 3900,
      "cul": 3901,
      "Ġsite": 3902,
      "eed": 3903,
      "idge": 3904,
      "Ġissued": 3905,
      "Ġcreated": 3906,
      "alled": 3907,
      "Ġstruct": 3908,
      "Ġdirectly": 3909,
      "Ġreleased": 3910,
      "Ġinternet": 3911,
      "OW": 3912,
      "oper": 3913,
      "Ġmonthly": 3914,
      "Ġphys": 3915,
      "32": 3916,
      "Ġrule": 3917,
      ")--": 3918,
      "BUSINESS": 3919,
      "ench": 3920,
      "Ġjoined": 3921,
      "Ġcult": 3922,
      "icit": 3923,
      "Ġplayers": 3924,
      "--(": 3925,
      "ux": 3926,
      "ĠBengaluru": 3927,
      "Ġ2013": 3928,
      "ĠArab": 3929,
      "aced": 3930,
      "luding": 3931,
      "Ġpolicies": 3932,
      "eutical": 3933,
      "Ġdecline": 3934,
      "Ġeffort": 3935,
      "Ġchalleng": 3936,
      "ĠSim": 3937,
      "iction": 3938,
      "Ġgenerally": 3939,
      "Ġstraight": 3940,
      "Ġgoals": 3941,
      "ILE": 3942,
      "Ġhappens": 3943,
      "Ġprograms": 3944,
      "Ġconstruction": 3945,
      "ĠEconomic": 3946,
      "Ġregarding": 3947,
      "Ġcryptocurrency": 3948,
      "uty": 3949,
      "ĠDE": 3950,
      "TI": 3951,
      "ĠBusiness": 3952,
      "Ġhighs": 3953,
      "UARTER": 3954,
      "ĠGRO": 3955,
      "ĠInvestment": 3956,
      "alt": 3957,
      "Ġoutput": 3958,
      "Ġmanufacturing": 3959,
      "mar": 3960,
      "Ġhomes": 3961,
      "ĠSaudi": 3962,
      "ĠMart": 3963,
      "Ġexcept": 3964,
      "ĠĠĠĠĠĠĠĠ": 3965,
      "ĠCOMP": 3966,
      "acity": 3967,
      "Ġadjusted": 3968,
      "QU": 3969,
      "Ġcases": 3970,
      "Ġreasons": 3971,
      "ACT": 3972,
      "Ġmeasure": 3973,
      "Ġuncertainties": 3974,
      "ĠWriting": 3975,
      "Ġrevenues": 3976,
      "CA": 3977,
      "ĠSu": 3978,
      "ĠChe": 3979,
      "Ġbegan": 3980,
      "Ġ//": 3981,
      "Ġestimated": 3982,
      "ĠECB": 3983,
      "orthern": 3984,
      "exas": 3985,
      "ĠDirector": 3986,
      "arc": 3987,
      "ĠRed": 3988,
      "Ġcommit": 3989,
      "Ġcoalition": 3990,
      "asts": 3991,
      "armaceutical": 3992,
      "Ġroad": 3993,
      "ASE": 3994,
      "POR": 3995,
      "Ġnamed": 3996,
      "Ġhelping": 3997,
      "ĠIndust": 3998,
      "â£": 3999,
      "Ġeight": 4000,
      "iles": 4001,
      "Ġholds": 4002,
      "ĠFirst": 4003,
      "Ġcore": 4004,
      "Ġbott": 4005,
      "Ġbrought": 4006,
      "Ġforce": 4007,
      "celer": 4008,
      "vis": 4009,
      ".)": 4010,
      "OD": 4011,
      "Ġfre": 4012,
      "Ġcontact": 4013,
      "ĠANN": 4014,
      "Ġvolume": 4015,
      "Ġproposed": 4016,
      "Ġpack": 4017,
      "Ġsubst": 4018,
      "ĠAlso": 4019,
      "Ġrally": 4020,
      "Ġsche": 4021,
      "holder": 4022,
      "Ġadvantage": 4023,
      "Ġmillions": 4024,
      "Ġseeing": 4025,
      "Ġresponse": 4026,
      "itute": 4027,
      "Ġlosing": 4028,
      "ĠAug": 4029,
      "All": 4030,
      "ĠPeople": 4031,
      "elligence": 4032,
      "Ġcop": 4033,
      "Ġexpense": 4034,
      "Ġconsid": 4035,
      "ky": 4036,
      "icking": 4037,
      "Ġforces": 4038,
      "ateg": 4039,
      "Ġaffect": 4040,
      "Ġhedge": 4041,
      "43": 4042,
      "Ġlight": 4043,
      "Ġlabor": 4044,
      "Ġpopular": 4045,
      "ĠNOT": 4046,
      "Ġcounter": 4047,
      "Ġcandid": 4048,
      "05": 4049,
      "ĠIslam": 4050,
      "Ġtool": 4051,
      "ĠCF": 4052,
      "Ġthroughout": 4053,
      "Ġtransactions": 4054,
      "cil": 4055,
      "ka": 4056,
      "ece": 4057,
      "eline": 4058,
      "Ġnatural": 4059,
      "ĠBrazil": 4060,
      "Ġguys": 4061,
      "Ġallowed": 4062,
      "ĠAgo": 4063,
      "ĠEast": 4064,
      "ĠFINAN": 4065,
      "more": 4066,
      "log": 4067,
      "ried": 4068,
      "Ġunless": 4069,
      "ander": 4070,
      "Ġmostly": 4071,
      "phone": 4072,
      "Ġreplay": 4073,
      "Not": 4074,
      "ĠQUARTER": 4075,
      "ĠReserve": 4076,
      "NA": 4077,
      "market": 4078,
      "Ġappreci": 4079,
      "Ġstrugg": 4080,
      "Ġfailed": 4081,
      "Ġclaims": 4082,
      "Ġprevent": 4083,
      "ĠJuly": 4084,
      "Ġfriend": 4085,
      "Ġguidance": 4086,
      "Ġfoot": 4087,
      "icle": 4088,
      "Ġgl": 4089,
      "ĠTV": 4090,
      "bit": 4091,
      "cle": 4092,
      "ĠTom": 4093,
      "ansion": 4094,
      "rown": 4095,
      "Ġcomplete": 4096,
      "\",": 4097,
      "atter": 4098,
      "Ġparties": 4099,
      "Ġtwe": 4100,
      "Ġimplement": 4101,
      "Ġdefinitely": 4102,
      "istan": 4103,
      "viously": 4104,
      "Ġopening": 4105,
      "Ġnormal": 4106,
      "SW": 4107,
      "Ġrap": 4108,
      "pected": 4109,
      "Ġemergency": 4110,
      ";#": 4111,
      "CIAL": 4112,
      "Ġsearch": 4113,
      "Ġsafety": 4114,
      "Ġfucking": 4115,
      "ube": 4116,
      "Ġopinion": 4117,
      "ĠTime": 4118,
      "Ġroll": 4119,
      "Ġresponsible": 4120,
      "Ġpartnership": 4121,
      "anch": 4122,
      "Ġdest": 4123,
      "ĠAlex": 4124,
      "duction": 4125,
      "Ġplanned": 4126,
      "Ġguarant": 4127,
      "Ġball": 4128,
      "Ġbecame": 4129,
      "Ġsimple": 4130,
      "Ġupdate": 4131,
      "gen": 4132,
      "Ġdecided": 4133,
      "point": 4134,
      "Ġlack": 4135,
      "Ġready": 4136,
      "69": 4137,
      "dr": 4138,
      "lied": 4139,
      "Ġfollowed": 4140,
      "67": 4141,
      "68": 4142,
      "Ġtradition": 4143,
      "Ġanticip": 4144,
      "Ġensure": 4145,
      "AY": 4146,
      "Ġdeals": 4147,
      "Ġresident": 4148,
      "ta": 4149,
      "ĠMost": 4150,
      "Ġremember": 4151,
      "yan": 4152,
      "Ġwel": 4153,
      "Ġbasically": 4154,
      "Ġchanged": 4155,
      "Ġvarious": 4156,
      "ding": 4157,
      "ĠTax": 4158,
      "kel": 4159,
      "ipment": 4160,
      "Ġiniti": 4161,
      "ki": 4162,
      "lt": 4163,
      "ming": 4164,
      "pects": 4165,
      "Ġtight": 4166,
      "Ġpounds": 4167,
      "Ġoffered": 4168,
      "inciples": 4169,
      "After": 4170,
      "Ġvac": 4171,
      "No": 4172,
      "astern": 4173,
      "Ġund": 4174,
      "esla": 4175,
      "ĠAc": 4176,
      "ĠGovern": 4177,
      "bank": 4178,
      "Ġcities": 4179,
      "Ġresources": 4180,
      "Ġtraded": 4181,
      "Ġvehicles": 4182,
      "cript": 4183,
      "Ġ#": 4184,
      "INGTON": 4185,
      "Ġpublished": 4186,
      "rep": 4187,
      "Ġsuff": 4188,
      "Ġseeking": 4189,
      "Ġbigger": 4190,
      "thereum": 4191,
      "Ġcrash": 4192,
      "Ġult": 4193,
      "ĠPRE": 4194,
      "Ġmiddle": 4195,
      "Ġshot": 4196,
      "Ġpercentage": 4197,
      "Ġbrands": 4198,
      "Ġmot": 4199,
      "Ġreading": 4200,
      "Ġcompletely": 4201,
      "bour": 4202,
      "Ġter": 4203,
      "CENT": 4204,
      "Ġconserv": 4205,
      "Ġgrad": 4206,
      "Ġexcited": 4207,
      "releases": 4208,
      "IF": 4209,
      "Ġrepe": 4210,
      "Ġputting": 4211,
      "ĠInvestor": 4212,
      "Ġcontracts": 4213,
      "Ġgreen": 4214,
      "ĠIns": 4215,
      "liance": 4216,
      "ĠPR": 4217,
      "Ġilleg": 4218,
      "Ġsize": 4219,
      "ĠTexas": 4220,
      "Ġdeveloping": 4221,
      "NEW": 4222,
      "lies": 4223,
      "Ġvice": 4224,
      "Ġexper": 4225,
      "Ġwithd": 4226,
      "Ġrout": 4227,
      "ĠThen": 4228,
      "Ġcontinues": 4229,
      "light": 4230,
      "ony": 4231,
      "ivity": 4232,
      "Ġeconomics": 4233,
      "Ġcapacity": 4234,
      "Ġstores": 4235,
      "Ġchain": 4236,
      "Ġinterested": 4237,
      "Ġparliament": 4238,
      "ĠREVENUE": 4239,
      "Ġbatt": 4240,
      "Ġgives": 4241,
      "Ġassist": 4242,
      "Ġletter": 4243,
      "Ġacceler": 4244,
      "iki": 4245,
      "Ġ2008": 4246,
      "newswire": 4247,
      "41": 4248,
      "bb": 4249,
      "Ġdraw": 4250,
      "ðŁļĢðŁļĢ": 4251,
      "Ex": 4252,
      "omew": 4253,
      "Ġhar": 4254,
      "merce": 4255,
      "Ġplanning": 4256,
      "SA": 4257,
      "ris": 4258,
      "ĠRob": 4259,
      "ĠRober": 4260,
      "ago": 4261,
      "prnewswire": 4262,
      "Ġprotection": 4263,
      "ĠKing": 4264,
      "Ġcheap": 4265,
      "Ġborder": 4266,
      "Ġwrit": 4267,
      "ĠOff": 4268,
      "98": 4269,
      "Ġasking": 4270,
      "Ġalthough": 4271,
      "ĠOlympics": 4272,
      "oose": 4273,
      "istics": 4274,
      "Ġdise": 4275,
      "Ġtrades": 4276,
      "Ġsigned": 4277,
      "UST": 4278,
      "Ġorganiz": 4279,
      "ĠMorgan": 4280,
      "han": 4281,
      "Ġsho": 4282,
      "action": 4283,
      "Ġguy": 4284,
      "07": 4285,
      "Ġminimum": 4286,
      "BI": 4287,
      "Ġsalary": 4288,
      "Ġdifference": 4289,
      "Ġencour": 4290,
      "vant": 4291,
      "aded": 4292,
      "ĠPre": 4293,
      "Ġsmaller": 4294,
      "Pro": 4295,
      "Ġtraders": 4296,
      "Ġgreater": 4297,
      "fect": 4298,
      "oon": 4299,
      "Ġbench": 4300,
      "ĠCommittee": 4301,
      "Ġparts": 4302,
      "ĠÂ£": 4303,
      "Ġabsolutely": 4304,
      "Â®": 4305,
      "ha": 4306,
      "Ġpeak": 4307,
      "Ġdecl": 4308,
      "AND": 4309,
      "Ġunits": 4310,
      "Ġevidence": 4311,
      "ek": 4312,
      "ecause": 4313,
      "iment": 4314,
      "ĠChairman": 4315,
      "ĠBO": 4316,
      "ĠDD": 4317,
      "Ġcloud": 4318,
      "Ġindustries": 4319,
      "Ġdropped": 4320,
      "anking": 4321,
      "arks": 4322,
      "Ġeventually": 4323,
      "Ġbeginning": 4324,
      "Ġalone": 4325,
      "Ġchairman": 4326,
      "Ġcollege": 4327,
      "Ġforced": 4328,
      "Ġdriving": 4329,
      "NASDAQ": 4330,
      "ishing": 4331,
      "ancy": 4332,
      "airs": 4333,
      "Ġopposition": 4334,
      "42": 4335,
      "ĠBen": 4336,
      "apore": 4337,
      "ĠAnn": 4338,
      "Ġrespective": 4339,
      "Ġreceive": 4340,
      "ARD": 4341,
      "Ġhands": 4342,
      "Ġstream": 4343,
      "Ġexpansion": 4344,
      "Ġdelivery": 4345,
      "AF": 4346,
      "acific": 4347,
      "urch": 4348,
      "pri": 4349,
      "Ġmoved": 4350,
      "Ġliterally": 4351,
      "Ġslightly": 4352,
      "Am": 4353,
      "ĠCourt": 4354,
      "ode": 4355,
      "ĠSwit": 4356,
      "Ġamid": 4357,
      "itiz": 4358,
      "Ġtown": 4359,
      "going": 4360,
      "ĠOper": 4361,
      "ASHINGTON": 4362,
      "Ġoutlook": 4363,
      "Ġfine": 4364,
      "ĠNov": 4365,
      "Ġblockchain": 4366,
      "Ġnine": 4367,
      "ams": 4368,
      "Ġdegree": 4369,
      "ĠJeff": 4370,
      "Ġconfidence": 4371,
      "ĠPhil": 4372,
      "Ġobl": 4373,
      "Ġpromot": 4374,
      "Ġparticularly": 4375,
      "06": 4376,
      "Ġmach": 4377,
      "Ġrough": 4378,
      "itor": 4379,
      "Ġvs": 4380,
      "ograp": 4381,
      "anger": 4382,
      "ĠEngland": 4383,
      "ĠEven": 4384,
      "Ġmanufacture": 4385,
      "Ġprimarily": 4386,
      "Ġsexual": 4387,
      "Ġclean": 4388,
      "ĠANNOUN": 4389,
      "Net": 4390,
      "alyst": 4391,
      "Ġgrew": 4392,
      "Ġattempt": 4393,
      "However": 4394,
      "97": 4395,
      "EX": 4396,
      "Ġpath": 4397,
      "ĠCoun": 4398,
      "Ġguess": 4399,
      "ĠWin": 4400,
      "Ġactive": 4401,
      "Ġexactly": 4402,
      "DU": 4403,
      "arp": 4404,
      "Ġintro": 4405,
      "OTO": 4406,
      "ĠBlack": 4407,
      "Ġprospect": 4408,
      "Just": 4409,
      "âĢ¦": 4410,
      "ĠVERS": 4411,
      "Ġratio": 4412,
      "Ġlic": 4413,
      "ĠFore": 4414,
      "Ġapproved": 4415,
      "ĠIndian": 4416,
      "ĠDemocratic": 4417,
      "businesswire": 4418,
      "BA": 4419,
      "Ġtend": 4420,
      "resh": 4421,
      "Ġfinancing": 4422,
      "ðŁĮ": 4423,
      "Ġhonest": 4424,
      "ges": 4425,
      "econom": 4426,
      "Ġcomplex": 4427,
      "angu": 4428,
      "ĠSyria": 4429,
      "GLO": 4430,
      "ball": 4431,
      "night": 4432,
      "Ġlab": 4433,
      "ĠMus": 4434,
      "eter": 4435,
      "ops": 4436,
      "Ġfundament": 4437,
      "ĠPHOTO": 4438,
      "ĠGDP": 4439,
      "ĠJames": 4440,
      "Ġannouncement": 4441,
      "zerland": 4442,
      "Ġmanaged": 4443,
      "ĠPeter": 4444,
      "ĠVERSUS": 4445,
      "Ġer": 4446,
      "ĠOur": 4447,
      "Ġpresidential": 4448,
      "Ġpropos": 4449,
      "outhern": 4450,
      "Ġdiffer": 4451,
      "Ġlegislation": 4452,
      "iled": 4453,
      "urg": 4454,
      "ager": 4455,
      "Ġorganization": 4456,
      "Ġitems": 4457,
      "Ġunemploy": 4458,
      "idered": 4459,
      "Ġmanage": 4460,
      "ĠReal": 4461,
      "iliar": 4462,
      "Ġconsidering": 4463,
      "Ġfarm": 4464,
      "Ġvictory": 4465,
      "hedul": 4466,
      "ĠBY": 4467,
      "Ġministry": 4468,
      "53": 4469,
      "BER": 4470,
      "ĠEthereum": 4471,
      "Ġneigh": 4472,
      "Ġdecisions": 4473,
      "part": 4474,
      "Ġcross": 4475,
      "enture": 4476,
      "ĠYear": 4477,
      "ĠNEWSW": 4478,
      "Ġconsidered": 4479,
      "Ġgone": 4480,
      "Ġtick": 4481,
      "ATED": 4482,
      "Ġcritical": 4483,
      "empor": 4484,
      "AK": 4485,
      "Ġsession": 4486,
      "ction": 4487,
      "Ġarrest": 4488,
      "DAY": 4489,
      "ĠNEWSWIRE": 4490,
      "PM": 4491,
      "Ġess": 4492,
      "Ġmaker": 4493,
      "Ġnar": 4494,
      "ada": 4495,
      "Ġproceed": 4496,
      "ĠHar": 4497,
      "ĠOf": 4498,
      "ĠYORK": 4499,
      "Ġinstitutions": 4500,
      "GLOBE": 4501,
      "ĠSystem": 4502,
      "ĠWell": 4503,
      "Ġselect": 4504,
      "Ġcenter": 4505,
      "Ġexpertise": 4506,
      "Ġhundreds": 4507,
      "Ġsend": 4508,
      "atures": 4509,
      "orney": 4510,
      "Ġcompar": 4511,
      "abis": 4512,
      "error": 4513,
      "Ġextremely": 4514,
      "Ġpain": 4515,
      "Ġstage": 4516,
      "Ġconc": 4517,
      "Ġshift": 4518,
      "Ġtried": 4519,
      "Ġaccused": 4520,
      "right": 4521,
      "rey": 4522,
      "Ġmist": 4523,
      "ĠRo": 4524,
      "ption": 4525,
      "Ġmanaging": 4526,
      "Further": 4527,
      "Ġciv": 4528,
      "Ġworst": 4529,
      "Ġreplace": 4530,
      "Ġpeace": 4531,
      "body": 4532,
      "Ġ(\"": 4533,
      "Ġrare": 4534,
      "WASHINGTON": 4535,
      "vision": 4536,
      "arian": 4537,
      "ĠAfter": 4538,
      "opt": 4539,
      "Ġindividuals": 4540,
      "ĠFINANCIAL": 4541,
      "Ġadvert": 4542,
      "Ġground": 4543,
      "ĠMedic": 4544,
      "ĠAugust": 4545,
      "ĠMAR": 4546,
      "Ġcarry": 4547,
      "Ġrestrict": 4548,
      "Ġcalcul": 4549,
      "/)": 4550,
      "urd": 4551,
      "Ġ2012": 4552,
      "Ġknows": 4553,
      "Ġdriven": 4554,
      "Ġtim": 4555,
      "ĠSwiss": 4556,
      "lides": 4557,
      "ĠCOR": 4558,
      "ester": 4559,
      "Ġweekend": 4560,
      "Ġapproval": 4561,
      "Ġplaying": 4562,
      "Ġsectors": 4563,
      "ĠBeijing": 4564,
      "AV": 4565,
      "ables": 4566,
      "ĠSingapore": 4567,
      "ait": 4568,
      "ĠBanc": 4569,
      "Ġworldwide": 4570,
      "ĠPERCENT": 4571,
      "Ġmaterially": 4572,
      "Ġconduct": 4573,
      "Ġattention": 4574,
      "Ġsignificantly": 4575,
      "Ġdi": 4576,
      "ĠKe": 4577,
      "Ġaltern": 4578,
      "ĠTurkey": 4579,
      "Ġdescribed": 4580,
      "Ġtechnical": 4581,
      "Ġclinical": 4582,
      "RED": 4583,
      "Ġfamiliar": 4584,
      "Ġturned": 4585,
      "ĠCONT": 4586,
      "cers": 4587,
      "uild": 4588,
      "Ġmoves": 4589,
      "Ġcomfort": 4590,
      "izon": 4591,
      "Ġstrategies": 4592,
      "Ġpict": 4593,
      "Ġlives": 4594,
      "Ġyen": 4595,
      "ĠPat": 4596,
      "Ġhelps": 4597,
      "Ġflag": 4598,
      "Ġconfident": 4599,
      "ĠJapanese": 4600,
      "SP": 4601,
      "Ġ(âĢľ": 4602,
      "Ġpassed": 4603,
      "BR": 4604,
      "gov": 4605,
      "wood": 4606,
      "Ġkept": 4607,
      "Ġpotentially": 4608,
      "Ġobject": 4609,
      "09": 4610,
      "Ġspl": 4611,
      "ĠAdditional": 4612,
      "800": 4613,
      "Ġfraud": 4614,
      "ĠLi": 4615,
      "ĠVI": 4616,
      "annel": 4617,
      "GAAP": 4618,
      "ny": 4619,
      "Ġoutstanding": 4620,
      "Ġspeech": 4621,
      "Ġconvers": 4622,
      "ferred": 4623,
      "Ġlearning": 4624,
      "ĠPL": 4625,
      "ĠEvery": 4626,
      "Ġrespect": 4627,
      "enty": 4628,
      "sequ": 4629,
      "Ġequipment": 4630,
      "Ġcombined": 4631,
      "Ġnegotiations": 4632,
      "wo": 4633,
      "Ġdiscl": 4634,
      "ĠFinance": 4635,
      "Ġlarger": 4636,
      "Ġstudent": 4637,
      "Ġwages": 4638,
      "Ġmix": 4639,
      "ida": 4640,
      "Ġupon": 4641,
      "Ġcorruption": 4642,
      "Now": 4643,
      "Ġcaused": 4644,
      "400": 4645,
      "Ġthr": 4646,
      "erves": 4647,
      "Ġemb": 4648,
      "Ġsusp": 4649,
      "ĠSwitzerland": 4650,
      "Ġpopulation": 4651,
      "ĠItaly": 4652,
      "Pr": 4653,
      "west": 4654,
      "ĠWar": 4655,
      "Ġchap": 4656,
      "ĠStr": 4657,
      "Ġschedul": 4658,
      "Ġcalling": 4659,
      "Ġsurv": 4660,
      "Ġplayed": 4661,
      "Ġtype": 4662,
      "Ġpractice": 4663,
      "Ġsurvey": 4664,
      "oul": 4665,
      "Ġburn": 4666,
      "umer": 4667,
      "ĠUSA": 4668,
      "maker": 4669,
      "run": 4670,
      "Ġpen": 4671,
      "state": 4672,
      "Ġdisp": 4673,
      "Ġadvanced": 4674,
      "Ġlaunched": 4675,
      "Ġheavy": 4676,
      "Ġacquired": 4677,
      "Ġbenchmark": 4678,
      "Ġworry": 4679,
      "Ġspot": 4680,
      "related": 4681,
      "while": 4682,
      "house": 4683,
      "Ġsomew": 4684,
      "ana": 4685,
      "ĠBill": 4686,
      "ĠInter": 4687,
      "Ġ300": 4688,
      "Ġplant": 4689,
      "ĠSecretary": 4690,
      "ĠRepublicans": 4691,
      "Ġseparate": 4692,
      "Ġtraditional": 4693,
      "erc": 4694,
      "Ġreject": 4695,
      "ously": 4696,
      "Ġmedic": 4697,
      "Ġdisapp": 4698,
      "Ġeasier": 4699,
      "Ġrapid": 4700,
      "ĠTechnology": 4701,
      "ĠFound": 4702,
      "ĠEar": 4703,
      "Ġleaving": 4704,
      "Ġthanks": 4705,
      "Ġdecent": 4706,
      "Ġseek": 4707,
      "Ġcompleted": 4708,
      "Ġsolution": 4709,
      "ivate": 4710,
      "ĠWhile": 4711,
      "Ġdevice": 4712,
      "Ġorders": 4713,
      "Ġclos": 4714,
      "Ġinnovative": 4715,
      "â£¿": 4716,
      "PA": 4717,
      "mb": 4718,
      "Ġfit": 4719,
      "Ġexchang": 4720,
      "Ġworse": 4721,
      "ĠMicro": 4722,
      "Ġclimb": 4723,
      "Ġfixed": 4724,
      "ĠTotal": 4725,
      "Ġprosecut": 4726,
      "Ġallegations": 4727,
      "ĠIts": 4728,
      "Ġcancer": 4729,
      "Ġbrief": 4730,
      "Ġvehicle": 4731,
      "Ġwrite": 4732,
      "Ġliquidity": 4733,
      "54": 4734,
      "eas": 4735,
      "field": 4736,
      "pay": 4737,
      "Ġ\\": 4738,
      "Ġcraz": 4739,
      "Ġperfect": 4740,
      "ĠYour": 4741,
      "Ġraising": 4742,
      "ĠPhoto": 4743,
      "Ġmultim": 4744,
      "ĠMal": 4745,
      "Ġtitle": 4746,
      "aire": 4747,
      "Ġcele": 4748,
      "Ġshareholder": 4749,
      "Ġcompetitive": 4750,
      "ounce": 4751,
      "Ġdemon": 4752,
      "ionally": 4753,
      "Ġappear": 4754,
      "Ġanaly": 4755,
      "Ġlisted": 4756,
      "Ġdesigned": 4757,
      "board": 4758,
      "Ġwalk": 4759,
      "Ġchoice": 4760,
      "Ġtonnes": 4761,
      "Ġlawyer": 4762,
      "78": 4763,
      "Ġrevers": 4764,
      "ĠDow": 4765,
      "Ġruling": 4766,
      "FT": 4767,
      "Is": 4768,
      "ĠIPO": 4769,
      "Ġhear": 4770,
      "ĠParty": 4771,
      "Ġstrength": 4772,
      "Ġvolatility": 4773,
      "Ġsort": 4774,
      "place": 4775,
      "Ġrenew": 4776,
      "etro": 4777,
      "Ġgained": 4778,
      "Ġgiant": 4779,
      "olks": 4780,
      "ĠGood": 4781,
      "Ġlawmakers": 4782,
      "azing": 4783,
      "ĠForum": 4784,
      "bl": 4785,
      "stream": 4786,
      "ĠPark": 4787,
      "aves": 4788,
      "ĠMedia": 4789,
      "Ġactivities": 4790,
      "UARY": 4791,
      "03": 4792,
      "ĠCount": 4793,
      "ĠJones": 4794,
      "Ġfinally": 4795,
      "ĠDirectors": 4796,
      "itch": 4797,
      "Ġpip": 4798,
      "Ġstrengthe": 4799,
      "ĠTesla": 4800,
      "ĠKim": 4801,
      "ptions": 4802,
      "Ġinteresting": 4803,
      "Ġdeveloped": 4804,
      "Ġpublicly": 4805,
      "ĠSteve": 4806,
      "South": 4807,
      "Ġ),": 4808,
      "Ġvalu": 4809,
      "Ġrealize": 4810,
      "Ġlargely": 4811,
      "Ġchallen": 4812,
      "Ġcommitted": 4813,
      "63": 4814,
      "agine": 4815,
      "Ġfacilities": 4816,
      "Ġpurchases": 4817,
      "hod": 4818,
      "Ġmus": 4819,
      "Ġowner": 4820,
      "Ġoperates": 4821,
      "ĠAndrew": 4822,
      "ĠStandards": 4823,
      "Ġmag": 4824,
      "Ġhol": 4825,
      "ĠColl": 4826,
      "Ġotherwise": 4827,
      "Ġblack": 4828,
      "Ġinvent": 4829,
      "bor": 4830,
      "Ġsil": 4831,
      "Ġtherap": 4832,
      "Ġcitiz": 4833,
      "Ġteams": 4834,
      "Ġmulti": 4835,
      "ford": 4836,
      "Ġmar": 4837,
      "Ġstead": 4838,
      "iger": 4839,
      "China": 4840,
      "Ġcat": 4841,
      "icago": 4842,
      "ĠHours": 4843,
      "istered": 4844,
      "ONG": 4845,
      "tax": 4846,
      "ites": 4847,
      "Ġthrow": 4848,
      "usion": 4849,
      "ennis": 4850,
      "Ġnecessary": 4851,
      "ĠTAX": 4852,
      "ĠRet": 4853,
      "Ġtransition": 4854,
      "Ġbasic": 4855,
      "unk": 4856,
      "ĠLaw": 4857,
      "Ġcommittee": 4858,
      "ĠCenter": 4859,
      "Ġtough": 4860,
      "Ġpump": 4861,
      "Ġdecide": 4862,
      "ĠIncome": 4863,
      "Ġsolar": 4864,
      "Ġfigures": 4865,
      "lant": 4866,
      "Ġbankrupt": 4867,
      "----": 4868,
      "ĠAfrican": 4869,
      "Ġrequirements": 4870,
      "iche": 4871,
      "Ġgoo": 4872,
      "ula": 4873,
      "Ġscale": 4874,
      "Ġconstant": 4875,
      "Con": 4876,
      "Ġdoct": 4877,
      "fl": 4878,
      "ĠLa": 4879,
      "Ġoffices": 4880,
      "Ġbusinesswire": 4881,
      "ucks": 4882,
      "Ġremaining": 4883,
      "Ġtransport": 4884,
      "Ġwinning": 4885,
      "Ġassociated": 4886,
      "ining": 4887,
      "erred": 4888,
      "kish": 4889,
      "real": 4890,
      "ĠMad": 4891,
      "ĠHis": 4892,
      "ART": 4893,
      "ĠAmericans": 4894,
      "Ġmovement": 4895,
      "ULL": 4896,
      "ĠINCRE": 4897,
      "SS": 4898,
      "uses": 4899,
      "Ġintelligence": 4900,
      "ĠShare": 4901,
      "Ġopened": 4902,
      "Ġmanagers": 4903,
      "Ġdiscussion": 4904,
      "Ġunemployment": 4905,
      "Ġmultimedia": 4906,
      "IES": 4907,
      "Sp": 4908,
      "Ġtempor": 4909,
      "ĠITS": 4910,
      "Ġgross": 4911,
      "estin": 4912,
      "Ġunlike": 4913,
      "Ġprincip": 4914,
      "owned": 4915,
      "ova": 4916,
      "Ġcertainly": 4917,
      "Ġclient": 4918,
      "Ġwithdraw": 4919,
      "Ġorganizations": 4920,
      "za": 4921,
      "ĠSH": 4922,
      "ĠSAL": 4923,
      "ĠEqu": 4924,
      "olutions": 4925,
      "Ġeasily": 4926,
      "Ġzero": 4927,
      "Ġbottom": 4928,
      "52": 4929,
      "89": 4930,
      "Ġtrial": 4931,
      "ĠPrinciples": 4932,
      "Ġinvolve": 4933,
      "Ġsustain": 4934,
      "gent": 4935,
      "loom": 4936,
      "Ġscen": 4937,
      "Ġscore": 4938,
      "Ġrestaur": 4939,
      "Ġmissing": 4940,
      "Ġcoins": 4941,
      "pm": 4942,
      "ĠStep": 4943,
      "Ġactions": 4944,
      "Ġownership": 4945,
      "ĠRobert": 4946,
      "adel": 4947,
      "Ġheart": 4948,
      "Ġmaintain": 4949,
      "Ġunderstanding": 4950,
      "Last": 4951,
      "ulf": 4952,
      "Ġattacks": 4953,
      "\")": 4954,
      "Ġbody": 4955,
      "Ġsaving": 4956,
      "argo": 4957,
      "arma": 4958,
      "ĠJohnson": 4959,
      "Ġchampion": 4960,
      "Can": 4961,
      "ded": 4962,
      "Ġjoining": 4963,
      "Ġfaster": 4964,
      "ĠSand": 4965,
      "Ġappe": 4966,
      "Ġfalling": 4967,
      "Ġacquisitions": 4968,
      "Ġstandard": 4969,
      "aught": 4970,
      "Ġglob": 4971,
      "ĠSecurity": 4972,
      "ĠSHARES": 4973,
      "Ġwaiting": 4974,
      "iance": 4975,
      "imul": 4976,
      "ĠJAN": 4977,
      "Ġseg": 4978,
      "Ġsecure": 4979,
      "ĠAny": 4980,
      "prise": 4981,
      "Ġdenied": 4982,
      "51": 4983,
      "Ġtable": 4984,
      "Ġaw": 4985,
      "ĠMO": 4986,
      "Ġowns": 4987,
      "Ġcrack": 4988,
      "Ġcreating": 4989,
      "FOR": 4990,
      "Ġsens": 4991,
      "lim": 4992,
      "rain": 4993,
      "Ġwish": 4994,
      "ĠSa": 4995,
      "ĠAcc": 4996,
      "Ġmeant": 4997,
      "Ġregional": 4998,
      "Ġscheduled": 4999,
      "Ġsto": 5000,
      "Ġeconomists": 5001,
      "Ġwonder": 5002,
      "âĢĿ)": 5003,
      "Ġkeeping": 5004,
      "OME": 5005,
      "Ġaware": 5006,
      "ĠDist": 5007,
      "Ġbrings": 5008,
      "Ġflat": 5009,
      "Beijing": 5010,
      "Ġrelatively": 5011,
      "Ġmodern": 5012,
      "URE": 5013,
      "čĠĠĊ": 5014,
      "Ġtechnologies": 5015,
      "icians": 5016,
      "Ġ2010": 5017,
      "Ġcontinuing": 5018,
      "Ġsometimes": 5019,
      "Ġver": 5020,
      "venue": 5021,
      "isco": 5022,
      "Ġmodels": 5023,
      "ĠOlympic": 5024,
      "64": 5025,
      "Ġrid": 5026,
      "ĠNor": 5027,
      "Ġign": 5028,
      "Ġfresh": 5029,
      "uth": 5030,
      "ĠCit": 5031,
      "ĠGames": 5032,
      "ivals": 5033,
      "Ġleverage": 5034,
      "Ġmethod": 5035,
      "Ġtrend": 5036,
      "overed": 5037,
      "Ġbehav": 5038,
      "Ġsubsidiary": 5039,
      "astic": 5040,
      "Ġfeed": 5041,
      "Ġsection": 5042,
      "Ġconcern": 5043,
      "Cont": 5044,
      "ĠSil": 5045,
      "OCK": 5046,
      "Do": 5047,
      "LA": 5048,
      "ster": 5049,
      "Ġsharp": 5050,
      "Ġincred": 5051,
      "Ġhistorical": 5052,
      "works": 5053,
      "Ġsubstant": 5054,
      "MA": 5055,
      "sell": 5056,
      "ĠEastern": 5057,
      "ĠWal": 5058,
      "Ġbills": 5059,
      "uate": 5060,
      "Ġsat": 5061,
      "Ġstress": 5062,
      "Ġearned": 5063,
      "Ġcelebr": 5064,
      "BIT": 5065,
      "Ġsoci": 5066,
      "Ġ45": 5067,
      "Ġrecovery": 5068,
      "Ġeffects": 5069,
      "scrib": 5070,
      "Ġmerger": 5071,
      "Ġtoward": 5072,
      "ĠTe": 5073,
      "ĠElect": 5074,
      "ĠCOMM": 5075,
      "Ġroughly": 5076,
      "ban": 5077,
      "Ġfelt": 5078,
      "ĠBel": 5079,
      "Ġreality": 5080,
      "Ġaccounting": 5081,
      "Ġdeposit": 5082,
      "02": 5083,
      "hu": 5084,
      "Ġcaut": 5085,
      "ĠMS": 5086,
      "Ġtraining": 5087,
      "ĠOther": 5088,
      "Ġtouch": 5089,
      "ĠCouncil": 5090,
      "Ġchallenge": 5091,
      "lix": 5092,
      "play": 5093,
      "Ġlocated": 5094,
      "Ġpowerful": 5095,
      "Ġinnovation": 5096,
      "lorida": 5097,
      "sec": 5098,
      "Ġpersonally": 5099,
      "ĠMot": 5100,
      "Ġallows": 5101,
      "Ġmissed": 5102,
      "ĠAssociation": 5103,
      "miss": 5104,
      "rd": 5105,
      "Ġder": 5106,
      "ĠBuff": 5107,
      "Ġregulations": 5108,
      "wan": 5109,
      "Ġcrow": 5110,
      "leg": 5111,
      "ĠCup": 5112,
      "Ġbear": 5113,
      "oods": 5114,
      "Ġreduced": 5115,
      "Ġvictim": 5116,
      "Ġmentioned": 5117,
      "Ġsnow": 5118,
      "Ġunique": 5119,
      "Ġargu": 5120,
      "Ġconnect": 5121,
      "Ġsle": 5122,
      "unt": 5123,
      "Ġexports": 5124,
      "Ġremov": 5125,
      "Ġdivision": 5126,
      "Ġprotests": 5127,
      "Ġpace": 5128,
      "ĠSub": 5129,
      "Ġchanging": 5130,
      "Here": 5131,
      "igned": 5132,
      "Ġlots": 5133,
      "Ġwarned": 5134,
      "Ġexecutives": 5135,
      "ĠSmith": 5136,
      "OG": 5137,
      "ota": 5138,
      "ĠKen": 5139,
      "Ġmining": 5140,
      "pective": 5141,
      "File": 5142,
      "press": 5143,
      "inary": 5144,
      "ĠFILE": 5145,
      "ĠINTER": 5146,
      "Ġhousehold": 5147,
      "94": 5148,
      "mo": 5149,
      "Ġtar": 5150,
      "ĠCarol": 5151,
      "ĠMedical": 5152,
      "Ġdelay": 5153,
      "ĠObama": 5154,
      ".-": 5155,
      "Ġfear": 5156,
      "Ġstimul": 5157,
      "pple": 5158,
      "Ġplaces": 5159,
      "Ġrock": 5160,
      "yd": 5161,
      "Ġtheory": 5162,
      "aled": 5163,
      "Ġdomin": 5164,
      "icks": 5165,
      "ĠTor": 5166,
      "ĠDel": 5167,
      "ĠHigh": 5168,
      "ĠLos": 5169,
      "Ġbroke": 5170,
      "Ġemployee": 5171,
      "Ġacquire": 5172,
      "Ġcommitment": 5173,
      "Ġtweet": 5174,
      "lideshow": 5175,
      "SE": 5176,
      "Ġsn": 5177,
      "ica": 5178,
      "ĠFort": 5179,
      "Ġweight": 5180,
      "Ġ2011": 5181,
      "Ġagencies": 5182,
      "Ġslam": 5183,
      "Ġspeed": 5184,
      "ĠParis": 5185,
      "Ġpleased": 5186,
      "96": 5187,
      "stein": 5188,
      "uts": 5189,
      "cel": 5190,
      "ĠAGRE": 5191,
      "ario": 5192,
      "ĠMore": 5193,
      "ĠOFF": 5194,
      "ĠMarkets": 5195,
      "Ġir": 5196,
      "ground": 5197,
      "Ġillegal": 5198,
      "Ġcrazy": 5199,
      "Ġcol": 5200,
      "Ġstable": 5201,
      "ille": 5202,
      "ĠMont": 5203,
      "Ġmatters": 5204,
      "well": 5205,
      "isk": 5206,
      "Ġlines": 5207,
      "utm": 5208,
      "ĠMet": 5209,
      "soft": 5210,
      "Ġoccur": 5211,
      "Ġrespectively": 5212,
      "ĠANNOUNCES": 5213,
      "Ġsplit": 5214,
      "ĠCAP": 5215,
      "acing": 5216,
      "Ġamounts": 5217,
      "ĠAngeles": 5218,
      "Ġlisten": 5219,
      "ean": 5220,
      "haps": 5221,
      "oly": 5222,
      "van": 5223,
      "Ġaward": 5224,
      "Ġdoz": 5225,
      "Ġconfirmed": 5226,
      "Ġsup": 5227,
      "Ġpct": 5228,
      "Ġtrig": 5229,
      "Ġpatient": 5230,
      "yal": 5231,
      "ĠPay": 5232,
      "ounces": 5233,
      "Ġfee": 5234,
      "Ġlooked": 5235,
      "Ġhimself": 5236,
      "Ġgeneration": 5237,
      "ĠiPh": 5238,
      "Ġbur": 5239,
      "Ġmine": 5240,
      "Ġcouldn": 5241,
      "Ġapes": 5242,
      "iminary": 5243,
      "Ġcompens": 5244,
      "Ġscored": 5245,
      "Ġmessage": 5246,
      "Ġexchanges": 5247,
      "ray": 5248,
      "Ġpi": 5249,
      "ĠFlorida": 5250,
      "Ġbecoming": 5251,
      "ĠCommunications": 5252,
      "ask": 5253,
      "ghan": 5254,
      "Ġassess": 5255,
      "Ġserving": 5256,
      "ĠResearch": 5257,
      "mor": 5258,
      "onna": 5259,
      "Ġrival": 5260,
      "Ġheard": 5261,
      "urrent": 5262,
      "Ġprofitable": 5263,
      "Ġefficient": 5264,
      "04": 5265,
      "Ġmig": 5266,
      "vered": 5267,
      "ĠMat": 5268,
      "Ġvirt": 5269,
      "Ġexpressed": 5270,
      "load": 5271,
      "Ġclub": 5272,
      "Ġamazing": 5273,
      "casts": 5274,
      "ipping": 5275,
      "ourth": 5276,
      "aph": 5277,
      "Ġplus": 5278,
      "Ġsteps": 5279,
      "LIN": 5280,
      "bourne": 5281,
      "dem": 5282,
      "road": 5283,
      "Ġaggress": 5284,
      "Ġchapters": 5285,
      "MS": 5286,
      "ĠSer": 5287,
      "Ġapply": 5288,
      "Ġrecover": 5289,
      "share": 5290,
      "Ġfilm": 5291,
      "ãĢĢãĢĢãĢĢãĢĢãĢĢãĢĢãĢĢãĢĢ": 5292,
      "Ġincreasingly": 5293,
      "Ġinfluence": 5294,
      "ĠHeadline": 5295,
      "met": 5296,
      "izes": 5297,
      "Ġknew": 5298,
      "Ġtrader": 5299,
      "Ġsquee": 5300,
      "Ġexerc": 5301,
      "Ġprison": 5302,
      "ĠChicago": 5303,
      "Ġthank": 5304,
      "Ġvaluation": 5305,
      "Ġcheaper": 5306,
      "Ask": 5307,
      "Ġmomentum": 5308,
      "Ġstatus": 5309,
      "Ġcopy": 5310,
      "net": 5311,
      "Ġge": 5312,
      "Ġgovernments": 5313,
      "Ġprimary": 5314,
      "IO": 5315,
      "flix": 5316,
      "idel": 5317,
      "ĠOR": 5318,
      "orry": 5319,
      "ĠSam": 5320,
      "Ġrad": 5321,
      "Ġlocations": 5322,
      "ĠMartin": 5323,
      "ĠGAAP": 5324,
      "Ġ37": 5325,
      "ĠStan": 5326,
      "ensions": 5327,
      "Ġmaint": 5328,
      "Ġpushed": 5329,
      "ĠAPP": 5330,
      "reak": 5331,
      "ilies": 5332,
      "Ġunderlying": 5333,
      "Ġshowing": 5334,
      "Ġongoing": 5335,
      "Ġtrip": 5336,
      "Ġ69": 5337,
      "Ġdocument": 5338,
      "First": 5339,
      "Re": 5340,
      "Ġpage": 5341,
      "Ġretailer": 5342,
      "lom": 5343,
      "Ġ2021": 5344,
      "ocked": 5345,
      "ĠThomas": 5346,
      "Ġdrugs": 5347,
      "ĠÂ®": 5348,
      "Ġcivil": 5349,
      "Ġtariff": 5350,
      "87": 5351,
      "ĠTechnologies": 5352,
      "ĠRyan": 5353,
      "Ġunp": 5354,
      "Ġqual": 5355,
      "ĠEXPECT": 5356,
      "ĠMelbourne": 5357,
      "She": 5358,
      "Ġbon": 5359,
      "Ġparent": 5360,
      "Ġcommunities": 5361,
      "Ġapplications": 5362,
      "Ġassumptions": 5363,
      "Ġhopes": 5364,
      "Ġdamage": 5365,
      "Company": 5366,
      "DE": 5367,
      "iat": 5368,
      "ivered": 5369,
      "Ġdiscount": 5370,
      "Ġarticle": 5371,
      "Ġtypically": 5372,
      "NE": 5373,
      "New": 5374,
      "Ġsounds": 5375,
      "Ġfif": 5376,
      "Ġlay": 5377,
      "aming": 5378,
      "ĠGreat": 5379,
      "Ġseed": 5380,
      "ĠAsian": 5381,
      "Ġhealthy": 5382,
      "annon": 5383,
      "Ġlearned": 5384,
      "Ġdecrease": 5385,
      "atin": 5386,
      "Ġachie": 5387,
      "ĠIntel": 5388,
      "Ġbatter": 5389,
      "Ġweap": 5390,
      "Ġbuyers": 5391,
      "Ġeth": 5392,
      "Ġhappening": 5393,
      "Ġalleged": 5394,
      "Ġculture": 5395,
      "Ġwat": 5396,
      "ita": 5397,
      "coming": 5398,
      "Ġconflic": 5399,
      "Ġcollect": 5400,
      "ĠScott": 5401,
      "Ġchallenges": 5402,
      "hib": 5403,
      "Ġcell": 5404,
      "Ġunderw": 5405,
      "velopment": 5406,
      "Ġproducer": 5407,
      "which": 5408,
      "Ġstarts": 5409,
      "cks": 5410,
      "itors": 5411,
      "Ġmission": 5412,
      "Ġtraff": 5413,
      "ĠRESUL": 5414,
      "Ġexperts": 5415,
      "organ": 5416,
      "Ġcas": 5417,
      "Ġthread": 5418,
      "ĠNasdaq": 5419,
      "ape": 5420,
      "Ġ75": 5421,
      "Ġinfo": 5422,
      "20180": 5423,
      "fr": 5424,
      "ĠFl": 5425,
      "osite": 5426,
      "rowth": 5427,
      "expected": 5428,
      "Ġbloc": 5429,
      "Ġstronger": 5430,
      "arij": 5431,
      "Ġmaterial": 5432,
      "ĠPalestin": 5433,
      "Ar": 5434,
      "Ġlending": 5435,
      "Ġeye": 5436,
      "ĠBTC": 5437,
      "Ġadvance": 5438,
      "Ġmiles": 5439,
      "Ġprompt": 5440,
      "Ġestimate": 5441,
      "ĠTranscript": 5442,
      "86": 5443,
      "Ġobs": 5444,
      "Ġship": 5445,
      "Ġnotice": 5446,
      "Ġextended": 5447,
      "Ġintrodu": 5448,
      "dom": 5449,
      "Ġcards": 5450,
      "iced": 5451,
      "icated": 5452,
      "Ġstories": 5453,
      "amm": 5454,
      "ĠFull": 5455,
      "Ġtelling": 5456,
      "Ġemerging": 5457,
      "UB": 5458,
      "Ġride": 5459,
      "Ġadopt": 5460,
      "Ġbacked": 5461,
      "Ġelections": 5462,
      "Ġdevices": 5463,
      "iency": 5464,
      "Ġpension": 5465,
      "ented": 5466,
      "uries": 5467,
      "ELL": 5468,
      "Ġâĸ": 5469,
      "Ġperspective": 5470,
      "iers": 5471,
      "Ġcred": 5472,
      "Ġdream": 5473,
      "iller": 5474,
      "Ġtroub": 5475,
      "Ġprime": 5476,
      "Ġfamilies": 5477,
      "Ġexperienced": 5478,
      "Ġwarning": 5479,
      "Ġproduce": 5480,
      "ĠArabia": 5481,
      "Ġaid": 5482,
      "ĠJim": 5483,
      "Ġenh": 5484,
      "Ġemot": 5485,
      "Ġremained": 5486,
      "Ġfounder": 5487,
      "Ġaffected": 5488,
      "ronic": 5489,
      "Bank": 5490,
      "ĠEv": 5491,
      "ĠJournal": 5492,
      "Ġcovered": 5493,
      "Ġdirectors": 5494,
      "Ġfacility": 5495,
      "Ġhurt": 5496,
      "iny": 5497,
      "estyle": 5498,
      "Ġexit": 5499,
      "anted": 5500,
      "Ġnewsp": 5501,
      "uana": 5502,
      "ĠNewsroom": 5503,
      "nabis": 5504,
      "yo": 5505,
      "Ġsound": 5506,
      "ĠAR": 5507,
      "see": 5508,
      "Ġrace": 5509,
      "Ġrecession": 5510,
      "Ġdepend": 5511,
      "Ġequival": 5512,
      "Ġcontroll": 5513,
      "ĠMacron": 5514,
      "hab": 5515,
      "ĠAg": 5516,
      "These": 5517,
      "Ġconsolid": 5518,
      "Ġhitting": 5519,
      "Ġcondition": 5520,
      "Ġdeposits": 5521,
      "bol": 5522,
      "kers": 5523,
      "Ġ@": 5524,
      "Ġciting": 5525,
      "Ġpricing": 5526,
      "ĠAtt": 5527,
      "oston": 5528,
      "ords": 5529,
      "ITAL": 5530,
      "Ġregulators": 5531,
      "Ġnorthern": 5532,
      "ifying": 5533,
      "Ġlowest": 5534,
      "Ġhotel": 5535,
      "ĠFrancisco": 5536,
      "Ġdeclared": 5537,
      "Americ": 5538,
      "Fin": 5539,
      "VID": 5540,
      "ĠSant": 5541,
      "ĠEPS": 5542,
      "Ġoperation": 5543,
      "Ġinterests": 5544,
      "Ġversus": 5545,
      "mitted": 5546,
      "Ġstick": 5547,
      "Ġtruly": 5548,
      "Ġdog": 5549,
      "aked": 5550,
      "Ġtools": 5551,
      "â£¿â£¿": 5552,
      "serv": 5553,
      "Ġventure": 5554,
      "ĠVir": 5555,
      "Ġfeeling": 5556,
      "ĠHome": 5557,
      "Ġchip": 5558,
      "Ġoffset": 5559,
      "Ġrefin": 5560,
      "reedom": 5561,
      "evin": 5562,
      "oz": 5563,
      "Ġ~": 5564,
      "ĠID": 5565,
      "ghai": 5566,
      "ĠAdvis": 5567,
      "apers": 5568,
      "Ġaccur": 5569,
      "30058": 5570,
      "loomberg": 5571,
      "arl": 5572,
      "resents": 5573,
      "Ind": 5574,
      "thlet": 5575,
      "anda": 5576,
      "Ġproducers": 5577,
      "Ġdelivered": 5578,
      "Ġimmediate": 5579,
      "ĠSyrian": 5580,
      "arijuana": 5581,
      "can": 5582,
      "Ġhor": 5583,
      "Ġ32": 5584,
      "Ġsports": 5585,
      "Ġcoast": 5586,
      "Ġbubb": 5587,
      "ression": 5588,
      "Ġassume": 5589,
      "uction": 5590,
      "ni": 5591,
      "Ġdied": 5592,
      "ache": 5593,
      "Ġexceed": 5594,
      "Ġfinished": 5595,
      "Ġruns": 5596,
      "Ġfactor": 5597,
      "Ġaimed": 5598,
      "ĠVIEW": 5599,
      "ĠIntern": 5600,
      "Ġ33": 5601,
      "Ġresol": 5602,
      "TD": 5603,
      "Ġsym": 5604,
      "Ġnames": 5605,
      "Ġweather": 5606,
      "Ġunion": 5607,
      "Ġeconomist": 5608,
      "Ġ2009": 5609,
      "Ġresearc": 5610,
      "ĠForeign": 5611,
      "rin": 5612,
      "Ġswe": 5613,
      "âĢĪ": 5614,
      "Ġgonna": 5615,
      "Ġyes": 5616,
      "Ġincent": 5617,
      "hens": 5618,
      "Ġadvisor": 5619,
      "IAL": 5620,
      "Ġdanger": 5621,
      "ĠRec": 5622,
      "Ġrand": 5623,
      "ĠNations": 5624,
      "Ġserves": 5625,
      "Ġseconds": 5626,
      "ĠInvestors": 5627,
      "Ġplatforms": 5628,
      "ĠETFs": 5629,
      "mical": 5630,
      "âĢį": 5631,
      "ĠInstitute": 5632,
      "woman": 5633,
      "orage": 5634,
      "ĠNe": 5635,
      "Ġdisease": 5636,
      "Ġcitizens": 5637,
      "Rep": 5638,
      "ĠCredit": 5639,
      "ado": 5640,
      "Ġregistered": 5641,
      "Ġauto": 5642,
      "Ġreasonable": 5643,
      "Ġexplain": 5644,
      "Ġlinked": 5645,
      "haul": 5646,
      "anghai": 5647,
      "ĠPacific": 5648,
      "Ġ36": 5649,
      "ĠINV": 5650,
      "Ġholders": 5651,
      "Ġidentify": 5652,
      "Ġappointed": 5653,
      "Ġheadquartered": 5654,
      "Ġtank": 5655,
      "Ġfat": 5656,
      "obs": 5657,
      "Ġclearly": 5658,
      "ĠPROF": 5659,
      "Ġbooks": 5660,
      "ĠIslamic": 5661,
      "Ġdump": 5662,
      "Ġlift": 5663,
      "ĠHere": 5664,
      "Ġalloc": 5665,
      "Ġrepresents": 5666,
      "Ġcooper": 5667,
      "Ġholdings": 5668,
      "Ġsigns": 5669,
      "Ġsettlement": 5670,
      "ĠFoundation": 5671,
      "Ġdemonstr": 5672,
      "Most": 5673,
      "law": 5674,
      "Ġwriting": 5675,
      "Ġcateg": 5676,
      "ĠMoney": 5677,
      "Ġplayer": 5678,
      "Ġimproved": 5679,
      "justed": 5680,
      "Ġcombination": 5681,
      "eah": 5682,
      "atically": 5683,
      "ĠWH": 5684,
      "ĠUSD": 5685,
      "Ġskills": 5686,
      "Ġimmigrants": 5687,
      "85": 5688,
      "list": 5689,
      "isa": 5690,
      "ĠJon": 5691,
      "Ġchoose": 5692,
      "Ġimports": 5693,
      "hy": 5694,
      "ouis": 5695,
      "ĠSince": 5696,
      "Ġcold": 5697,
      "Ġportion": 5698,
      "Any": 5699,
      "IGH": 5700,
      "Ġspeaks": 5701,
      "Ġanticipated": 5702,
      "ĠRobin": 5703,
      "Ġunlikely": 5704,
      "va": 5705,
      "win": 5706,
      "ĠAlp": 5707,
      "ĠDis": 5708,
      "upid": 5709,
      "ĠOil": 5710,
      "ANY": 5711,
      "Ġoperate": 5712,
      "ĠWhy": 5713,
      "Ġlisting": 5714,
      "Ġpresence": 5715,
      "Ġoverseas": 5716,
      "Ġengineering": 5717,
      "CL": 5718,
      "ĠTok": 5719,
      "ĠTimes": 5720,
      "ĠLim": 5721,
      "Ġideas": 5722,
      "Ġbelieves": 5723,
      "utual": 5724,
      "ĠPak": 5725,
      "umes": 5726,
      "Ġappeal": 5727,
      "Ġresponsibility": 5728,
      "Ġwritten": 5729,
      "alysts": 5730,
      "BM": 5731,
      "free": 5732,
      "ket": 5733,
      "will": 5734,
      "Ġbag": 5735,
      "ĠCor": 5736,
      "oted": 5737,
      "ilit": 5738,
      "ups": 5739,
      "AST": 5740,
      "Ġfounded": 5741,
      "Ġstudents": 5742,
      "Ġconcerned": 5743,
      "Ġbringing": 5744,
      "Ġconservative": 5745,
      "EG": 5746,
      "FF": 5747,
      "heast": 5748,
      "Ġreduction": 5749,
      "Ġexcell": 5750,
      "Ġnotes": 5751,
      "Ġblow": 5752,
      "79": 5753,
      "tics": 5754,
      "ican": 5755,
      "urb": 5756,
      "ĠEUR": 5757,
      "ĠDen": 5758,
      "Ġreserves": 5759,
      "ALL": 5760,
      "Ġblood": 5761,
      "Ġtargets": 5762,
      "ĠAGREEMENT": 5763,
      "Econom": 5764,
      "found": 5765,
      "Ġexclus": 5766,
      "uell": 5767,
      "Ġaccus": 5768,
      "Ġminor": 5769,
      "ANK": 5770,
      "ĠPrivate": 5771,
      "rics": 5772,
      "Ġbecomes": 5773,
      "ANCE": 5774,
      "erman": 5775,
      "Ġolder": 5776,
      "Ġdoubt": 5777,
      "uxury": 5778,
      "CC": 5779,
      "Mr": 5780,
      "Since": 5781,
      "Ġes": 5782,
      "Ġinform": 5783,
      "icy": 5784,
      "ĠJer": 5785,
      "Ġreporter": 5786,
      "Ġkid": 5787,
      "Ġuseful": 5788,
      "Ġfaces": 5789,
      "ĠEnter": 5790,
      "reuters": 5791,
      "Ġmother": 5792,
      "ĠCall": 5793,
      "ĠMany": 5794,
      "Ġadmin": 5795,
      "obody": 5796,
      "Ġsupported": 5797,
      "ĠGROUP": 5798,
      "esterday": 5799,
      "71": 5800,
      "Ġjournal": 5801,
      "Ġamb": 5802,
      "Ġcommission": 5803,
      "Ġconfirm": 5804,
      "\\-": 5805,
      "hi": 5806,
      "ĠLo": 5807,
      "Ġtransform": 5808,
      "ĠLeague": 5809,
      "Ġwild": 5810,
      "ĠPress": 5811,
      "ĠPlease": 5812,
      "ĠTrade": 5813,
      "Ġmanip": 5814,
      "ASS": 5815,
      "athan": 5816,
      "Ġfinding": 5817,
      "Ġspeaking": 5818,
      "Ġstrategist": 5819,
      "Ġstandards": 5820,
      "ĠQuarter": 5821,
      "Ġcryptocurrencies": 5822,
      "Ġjudge": 5823,
      "People": 5824,
      "Ġlend": 5825,
      "Ġtwice": 5826,
      "Ġcapabilities": 5827,
      "Ġdefense": 5828,
      "lands": 5829,
      "ATIONS": 5830,
      "ĠMerkel": 5831,
      "Ġreferen": 5832,
      "Ġattend": 5833,
      "ĠWestern": 5834,
      "Ġbeg": 5835,
      "Ġchart": 5836,
      "Ġending": 5837,
      "ĠFrank": 5838,
      "ĠSEES": 5839,
      "Ġdiplom": 5840,
      "Euro": 5841,
      "pot": 5842,
      "rees": 5843,
      "Ġ150": 5844,
      "Ġsees": 5845,
      "Ġquit": 5846,
      "Ġweekly": 5847,
      "Ġwelcome": 5848,
      "AFTA": 5849,
      "Ġfifth": 5850,
      "ĠPROFIT": 5851,
      "600": 5852,
      "aby": 5853,
      "Ġnoted": 5854,
      "Ġuns": 5855,
      "Ġprepar": 5856,
      "Ġtransp": 5857,
      "ĠAdministration": 5858,
      "overty": 5859,
      "Ġalternative": 5860,
      "Ġsociety": 5861,
      "kn": 5862,
      "eration": 5863,
      "ĠSenior": 5864,
      "ĠEBIT": 5865,
      "cons": 5866,
      "Ġsucceed": 5867,
      "ĠAfghan": 5868,
      "ĠGetty": 5869,
      "Ġharass": 5870,
      "ĠOffice": 5871,
      "DER": 5872,
      "Ġwhite": 5873,
      "olit": 5874,
      "Ġcomplic": 5875,
      "Ġcontain": 5876,
      "Ġcommunic": 5877,
      "ITION": 5878,
      "Ġrelationships": 5879,
      "mas": 5880,
      "with": 5881,
      "Ġwid": 5882,
      "ĠCM": 5883,
      "ĠBig": 5884,
      "ĠBoston": 5885,
      "ĠLead": 5886,
      "Ġoperational": 5887,
      "Ġallowing": 5888,
      "Ġproposal": 5889,
      "ĠSALES": 5890,
      "PI": 5891,
      "ps": 5892,
      "Ġties": 5893,
      "Ġgamb": 5894,
      "Ġ65": 5895,
      "Ġ68": 5896,
      "espite": 5897,
      "Ġheavily": 5898,
      "long": 5899,
      "Ġterror": 5900,
      "ĠAre": 5901,
      "Ġstated": 5902,
      "igan": 5903,
      "Ġprel": 5904,
      "ossible": 5905,
      "91": 5906,
      "rant": 5907,
      "Ġsem": 5908,
      "Ġwest": 5909,
      "aling": 5910,
      "ĠSolutions": 5911,
      "ĠRos": 5912,
      "ĠJose": 5913,
      "Ġdeficit": 5914,
      "ĠShanghai": 5915,
      "CTION": 5916,
      "ĠSal": 5917,
      "Ġarch": 5918,
      "ĠContact": 5919,
      "OK": 5920,
      "dden": 5921,
      "ashed": 5922,
      "Ġuses": 5923,
      "Ġstrike": 5924,
      "gypt": 5925,
      "Ġstruggling": 5926,
      "Ġterrit": 5927,
      "62": 5928,
      "84": 5929,
      "gu": 5930,
      "sen": 5931,
      "icles": 5932,
      "utch": 5933,
      "imal": 5934,
      "ĠMur": 5935,
      "Ġinside": 5936,
      "Ġsurge": 5937,
      "Ġputs": 5938,
      "enez": 5939,
      "Ġedge": 5940,
      "tenance": 5941,
      "Ġnecessarily": 5942,
      "Ġstimulus": 5943,
      "Ġpreliminary": 5944,
      "CF": 5945,
      "PL": 5946,
      "flation": 5947,
      "Ġtem": 5948,
      "ĠII": 5949,
      "ĠWil": 5950,
      "ĠNick": 5951,
      "Ġcool": 5952,
      "Ġemployment": 5953,
      "Ġimproving": 5954,
      "Ġsentiment": 5955,
      "ĠItalian": 5956,
      "Ġprofessionals": 5957,
      "Ġbarrels": 5958,
      "61": 5959,
      "ĠSign": 5960,
      "Ġwaste": 5961,
      "Ġsudden": 5962,
      "Ġpled": 5963,
      "Ġattribut": 5964,
      "Ġrecognized": 5965,
      "Ġrepeated": 5966,
      "Ġpicture": 5967,
      "isation": 5968,
      "ĠMa": 5969,
      "Ġsaved": 5970,
      "apse": 5971,
      "Ġexplo": 5972,
      "ĠINCOME": 5973,
      "ĠTurkish": 5974,
      "Ġpurpose": 5975,
      "Media": 5976,
      "ateral": 5977,
      "asc": 5978,
      "ĠNAFTA": 5979,
      "Ġvision": 5980,
      "Ġincident": 5981,
      "sels": 5982,
      "band": 5983,
      "under": 5984,
      "ĠPort": 5985,
      "irth": 5986,
      "Ġdeploy": 5987,
      "Ġroles": 5988,
      "Ġtelevision": 5989,
      "Ġboom": 5990,
      "Market": 5991,
      "ĠDRS": 5992,
      "Ġ72": 5993,
      "views": 5994,
      "Ġspecul": 5995,
      "Ġpushing": 5996,
      "Ġinjury": 5997,
      "Fr": 5998,
      "Ġtoken": 5999,
      "ĠBa": 6000,
      "Ġscient": 6001,
      "Ġdriver": 6002,
      "Investor": 6003,
      "Ġmusic": 6004,
      "Good": 6005,
      "ted": 6006,
      "ounding": 6007,
      "Ġleads": 6008,
      "Ġscam": 6009,
      "Ġfloor": 6010,
      "Ġstructure": 6011,
      "72": 6012,
      "73": 6013,
      "Every": 6014,
      "you": 6015,
      "Ġathlet": 6016,
      "Ġshouldn": 6017,
      "Ġretailers": 6018,
      "ĠSwed": 6019,
      "ipped": 6020,
      "ram": 6021,
      "ĠSuper": 6022,
      "oles": 6023,
      "Ġclimate": 6024,
      "Ġscr": 6025,
      "Ġequities": 6026,
      "Ġfiling": 6027,
      "Ġbrokerage": 6028,
      "Even": 6029,
      "President": 6030,
      "icon": 6031,
      "ĠInformation": 6032,
      "Ġrefuge": 6033,
      "Ġconsumption": 6034,
      "Ġidentified": 6035,
      "Ġheadquarters": 6036,
      "Ġcomputer": 6037,
      "Ġrobust": 6038,
      "ius": 6039,
      "ĠABO": 6040,
      "iminal": 6041,
      "que": 6042,
      "ĠUber": 6043,
      "ĠGreen": 6044,
      "Ġharder": 6045,
      "Ġenvironmental": 6046,
      "Ġestablished": 6047,
      "ĠBancorp": 6048,
      "bel": 6049,
      "http": 6050,
      "anish": 6051,
      "Ġpow": 6052,
      "roy": 6053,
      "Ġforget": 6054,
      "ĠHOLD": 6055,
      "Ġcapt": 6056,
      "Ġcycle": 6057,
      "Ġbunch": 6058,
      "Ġvalues": 6059,
      "Ġbroader": 6060,
      "Ġexpanding": 6061,
      "Ġbullish": 6062,
      "Ġproceeds": 6063,
      "Ġappeared": 6064,
      "âł": 6065,
      "Ġfle": 6066,
      "this": 6067,
      "Ġprovince": 6068,
      "Ġregulator": 6069,
      "ĠMaybe": 6070,
      "ĠWilliams": 6071,
      "greg": 6072,
      "mart": 6073,
      "onents": 6074,
      "ONS": 6075,
      "ollar": 6076,
      "Ġlegit": 6077,
      "enny": 6078,
      "Ġhouses": 6079,
      "Ġlandl": 6080,
      "Ġeffectively": 6081,
      "ĠWinter": 6082,
      "Ġnor": 6083,
      "Ġgir": 6084,
      "ĠNik": 6085,
      "Ġcompliance": 6086,
      "ĠOut": 6087,
      "ĠSTOCK": 6088,
      "enezuel": 6089,
      "EES": 6090,
      "More": 6091,
      "Ġwoman": 6092,
      "Ġbus": 6093,
      "Ġresc": 6094,
      "Ġwatching": 6095,
      "Ġpanel": 6096,
      "Ġphysical": 6097,
      "Ġnomin": 6098,
      "ĠChile": 6099,
      "Ġregistration": 6100,
      "sche": 6101,
      "ilipp": 6102,
      "Ġrental": 6103,
      "Ġmaterials": 6104,
      "ĠService": 6105,
      "Ġbattle": 6106,
      "ĠINVEST": 6107,
      "PG": 6108,
      "dyn": 6109,
      "Ġcongress": 6110,
      "ĠOh": 6111,
      "Ġextensive": 6112,
      "Ġbasket": 6113,
      "ĠSystems": 6114,
      "Your": 6115,
      "ĠCare": 6116,
      "aching": 6117,
      "ĠGl": 6118,
      "Ġdoor": 6119,
      "Ġexposure": 6120,
      "ĠNetflix": 6121,
      "ĠOPER": 6122,
      "Ġlawsuit": 6123,
      "ĠJustice": 6124,
      "ĠChristian": 6125,
      "ĠCramer": 6126,
      "bi": 6127,
      "bed": 6128,
      "but": 6129,
      "elect": 6130,
      "inks": 6131,
      "Ġflex": 6132,
      "Ġlangu": 6133,
      "ĠSol": 6134,
      "ĠTim": 6135,
      "ĠMatt": 6136,
      "ĠHu": 6137,
      "Ġdisput": 6138,
      "ĠDevelopment": 6139,
      "ĠStatements": 6140,
      "Ġfighting": 6141,
      "ĠVirgin": 6142,
      "81": 6143,
      "Ġice": 6144,
      "itz": 6145,
      "Ġstupid": 6146,
      "Ġimagine": 6147,
      "ĠOPEC": 6148,
      "Ġhoping": 6149,
      "Ġwidely": 6150,
      "stonk": 6151,
      "Ġfrequ": 6152,
      "Ġment": 6153,
      "Ġeat": 6154,
      "Ġnations": 6155,
      "ĠSales": 6156,
      "umul": 6157,
      "ĠLike": 6158,
      "ĠFrom": 6159,
      "pdf": 6160,
      "Ġcenters": 6161,
      "Ġpossibility": 6162,
      "Ġtesting": 6163,
      "Ġ401": 6164,
      "Ġrelevant": 6165,
      "Ġupdates": 6166,
      "Ġpipeline": 6167,
      "OX": 6168,
      "ĠBas": 6169,
      "Ġoverhaul": 6170,
      "Ġspokeswoman": 6171,
      "Ġcomfortable": 6172,
      "ĠMicrosoft": 6173,
      "morrow": 6174,
      "LP": 6175,
      "OU": 6176,
      "SON": 6177,
      "rier": 6178,
      "Ġtomorrow": 6179,
      "Ġgro": 6180,
      "ĠSocial": 6181,
      "Ġstorm": 6182,
      "ĠGreg": 6183,
      "Ġdirection": 6184,
      "ĠOrgan": 6185,
      "Ġdelivering": 6186,
      "Ġjumped": 6187,
      "nd": 6188,
      "Ġmarijuana": 6189,
      "ĠTen": 6190,
      "Ġexcess": 6191,
      "raq": 6192,
      "Ġ67": 6193,
      "Ġadvoc": 6194,
      "ICE": 6195,
      "Ġspeculation": 6196,
      "Ġwinter": 6197,
      "ronics": 6198,
      "Ġinstitutional": 6199,
      "Ġnewspaper": 6200,
      "Ġok": 6201,
      "Ġnorth": 6202,
      "ĠWS": 6203,
      "dities": 6204,
      "ANT": 6205,
      "Ġsetting": 6206,
      "Ġobviously": 6207,
      "ĠSPD": 6208,
      "Ġutility": 6209,
      "ĠOperating": 6210,
      "ĠiPhone": 6211,
      "Gen": 6212,
      "\\*": 6213,
      "iy": 6214,
      "ena": 6215,
      "Ġmental": 6216,
      "Ġchips": 6217,
      "Ġplenty": 6218,
      "fficient": 6219,
      "Ġtelephone": 6220,
      "Ġprospectus": 6221,
      "Sc": 6222,
      "hand": 6223,
      "entures": 6224,
      "Ġvast": 6225,
      "Ġunf": 6226,
      "Ġhasn": 6227,
      "rene": 6228,
      "Ġ34": 6229,
      "Ġentertain": 6230,
      "Ġforecasts": 6231,
      "Ġreducing": 6232,
      "valued": 6233,
      "Ġinternal": 6234,
      "Ġpurposes": 6235,
      "Ġholiday": 6236,
      "ĠIll": 6237,
      "ĠAgency": 6238,
      "acter": 6239,
      "Ġhearing": 6240,
      "abin": 6241,
      "Ġ600": 6242,
      "Ġearning": 6243,
      "Ġclosely": 6244,
      "Ġdiscussed": 6245,
      "class": 6246,
      "ĠChris": 6247,
      "fortun": 6248,
      "250": 6249,
      "Mac": 6250,
      "ashion": 6251,
      "ĠShares": 6252,
      "Ġproviders": 6253,
      "Ġcompete": 6254,
      "erring": 6255,
      "Ġadvertising": 6256,
      "Ġreli": 6257,
      "otive": 6258,
      "ĠFord": 6259,
      "Ġkick": 6260,
      "Ġenforce": 6261,
      "Ġequal": 6262,
      "shore": 6263,
      "Ġ2007": 6264,
      "Ġcircum": 6265,
      "ĠCORP": 6266,
      "Ġcloser": 6267,
      "ĠCAPITAL": 6268,
      "Ġweapons": 6269,
      "93": 6270,
      "ĠSchool": 6271,
      "ailed": 6272,
      "Ġsuggested": 6273,
      "Ġlifestyle": 6274,
      "Ġconsistent": 6275,
      "Ġsatis": 6276,
      ".--(": 6277,
      "ls": 6278,
      "men": 6279,
      "zech": 6280,
      "era": 6281,
      "Ġfile": 6282,
      "Ġweaker": 6283,
      "Ġsharing": 6284,
      "Ġshared": 6285,
      "Ġdeferred": 6286,
      "ĠPrior": 6287,
      "Ġpractices": 6288,
      "Ġsleep": 6289,
      "Ear": 6290,
      "Ġsyn": 6291,
      "ĠMo": 6292,
      "Ġtrain": 6293,
      "iagn": 6294,
      "Ġclick": 6295,
      "ĠClass": 6296,
      "ĠMiddle": 6297,
      "PT": 6298,
      "rehens": 6299,
      "Ġswit": 6300,
      "ĠMod": 6301,
      "Ġconvert": 6302,
      "ĠQual": 6303,
      "IGN": 6304,
      "ĠInsurance": 6305,
      "ador": 6306,
      "ĠWol": 6307,
      "Ġunable": 6308,
      "Ġword": 6309,
      "ĠView": 6310,
      "rible": 6311,
      "Ġattorney": 6312,
      "Ġpossibly": 6313,
      "company": 6314,
      "Ġdocuments": 6315,
      "Ġvictims": 6316,
      "Ġsqueeze": 6317,
      "Ġbubble": 6318,
      "ĠABOUT": 6319,
      "dynia": 6320,
      "odities": 6321,
      "onym": 6322,
      "Ġfreedom": 6323,
      "Ġluxury": 6324,
      "ĠTai": 6325,
      "ĠCoin": 6326,
      "essions": 6327,
      "Ġdepends": 6328,
      "ĠAtlant": 6329,
      "Ġsummer": 6330,
      "ria": 6331,
      "anmar": 6332,
      "usal": 6333,
      "ĠLit": 6334,
      "ĠLet": 6335,
      "Ġexpress": 6336,
      "Ġproud": 6337,
      "anging": 6338,
      "Ġdepart": 6339,
      "Ġcharged": 6340,
      "Ġrestrictions": 6341,
      "Cl": 6342,
      "craft": 6343,
      "fund": 6344,
      "rian": 6345,
      "Ġx": 6346,
      "level": 6347,
      "ĠCL": 6348,
      "ĠThose": 6349,
      "Ġsupplies": 6350,
      "ECTS": 6351,
      "Ġrejected": 6352,
      "SI": 6353,
      "mission": 6354,
      "enger": 6355,
      "ĠFE": 6356,
      "Ġprove": 6357,
      "ĠOver": 6358,
      "Ġabuse": 6359,
      "odity": 6360,
      "echan": 6361,
      "Ġscreen": 6362,
      "Ġbillions": 6363,
      "Ġlocation": 6364,
      "Ġvariety": 6365,
      "Ġscheme": 6366,
      "Ġbehavior": 6367,
      "Bl": 6368,
      "Other": 6369,
      "ville": 6370,
      "osc": 6371,
      "Ġarmy": 6372,
      "Ġcommunications": 6373,
      "Ġprepared": 6374,
      "sych": 6375,
      "GE": 6376,
      "Ġ00": 6377,
      "orge": 6378,
      "Ġhack": 6379,
      "iding": 6380,
      "urt": 6381,
      "ĠBannon": 6382,
      "Ġdismiss": 6383,
      "IST": 6384,
      "Ġtemporary": 6385,
      "sing": 6386,
      "Ġreve": 6387,
      "aches": 6388,
      "ĠBay": 6389,
      "Ġworried": 6390,
      "Ġuser": 6391,
      "elling": 6392,
      "Ġdont": 6393,
      "ovic": 6394,
      "week": 6395,
      "Ġrecorded": 6396,
      "Ġgenerate": 6397,
      "Ġfacing": 6398,
      "Ġproduced": 6399,
      "ĠPRODU": 6400,
      "Gdynia": 6401,
      "SH": 6402,
      "called": 6403,
      "lights": 6404,
      "stone": 6405,
      "urity": 6406,
      "andemic": 6407,
      "Ġminute": 6408,
      "Ġcutting": 6409,
      "Ġcompensation": 6410,
      "amily": 6411,
      "Ġemp": 6412,
      "yl": 6413,
      "ros": 6414,
      "ĠTele": 6415,
      "ĠBo": 6416,
      "iling": 6417,
      "ĠHot": 6418,
      "ĠLong": 6419,
      "Ġupgr": 6420,
      "Ġ400": 6421,
      "Ġprec": 6422,
      "icket": 6423,
      "Ġfeatures": 6424,
      "Ġmissile": 6425,
      "Ġorigin": 6426,
      "KET": 6427,
      "Ġawards": 6428,
      "itable": 6429,
      "ĠHoll": 6430,
      "Ġallies": 6431,
      "Ġquant": 6432,
      "Ġconsecutive": 6433,
      "Ġcriminal": 6434,
      "Ġdebate": 6435,
      "Ġmainly": 6436,
      "Ġfeels": 6437,
      "Ġairline": 6438,
      "ĠConference": 6439,
      "Ġappointment": 6440,
      "ĠReddit": 6441,
      "otes": 6442,
      "Ġcannabis": 6443,
      "ĠCONS": 6444,
      "ĠAGO": 6445,
      "reprene": 6446,
      "Ġlicens": 6447,
      "fall": 6448,
      "oration": 6449,
      "itude": 6450,
      "Ġstorage": 6451,
      "ĠData": 6452,
      "ĠNon": 6453,
      "Ġanyway": 6454,
      "Ġacting": 6455,
      "Ġbackground": 6456,
      "Why": 6457,
      "ĠDef": 6458,
      "Ġapplication": 6459,
      "check": 6460,
      "Ġtiming": 6461,
      "):": 6462,
      "reated": 6463,
      "alse": 6464,
      "apt": 6465,
      "Ġplants": 6466,
      "ðŁĴ": 6467,
      "Stop": 6468,
      "oeing": 6469,
      "aniel": 6470,
      "Ġcriticism": 6471,
      "ĠCarolina": 6472,
      "pet": 6473,
      "ini": 6474,
      "Ġcatch": 6475,
      "ĠSci": 6476,
      "ĠAB": 6477,
      "ĠDay": 6478,
      "ĠKevin": 6479,
      "Ġcollapse": 6480,
      "Ġsitting": 6481,
      "Ġmoon": 6482,
      "ĠPetro": 6483,
      "Ġuncertainty": 6484,
      "Ġdedicated": 6485,
      "Ġvaluable": 6486,
      "92": 6487,
      "Go": 6488,
      "May": 6489,
      "yes": 6490,
      "Ġboss": 6491,
      "Ġfolks": 6492,
      "ĠLast": 6493,
      "Ġmaintenance": 6494,
      "Ġentirely": 6495,
      "know": 6496,
      "mond": 6497,
      "wiki": 6498,
      "Ġharm": 6499,
      "âĢĬ": 6500,
      "Ġrivals": 6501,
      "Ġproven": 6502,
      "Ġ2000": 6503,
      "Ġshown": 6504,
      "Ġshoot": 6505,
      "Ġbelief": 6506,
      "interest": 6507,
      "profit": 6508,
      "Ġwealthy": 6509,
      "Ġobligation": 6510,
      "turn": 6511,
      "Ġ2022": 6512,
      "ĠGame": 6513,
      "Ġresist": 6514,
      "dule": 6515,
      "Ġpulled": 6516,
      "ðŁĮĳ": 6517,
      "150": 6518,
      "?\"": 6519,
      "uations": 6520,
      "ĠSus": 6521,
      "ĠBern": 6522,
      "ĠRod": 6523,
      "ĠEgypt": 6524,
      "Ġsevere": 6525,
      "Ġdepartment": 6526,
      "ĠIranian": 6527,
      "Ġrepresenting": 6528,
      "74": 6529,
      "Ġsouthern": 6530,
      "Ġbirth": 6531,
      "Ġfather": 6532,
      "Ġep": 6533,
      "ĠMake": 6534,
      "ĠPost": 6535,
      "semb": 6536,
      "ĠJul": 6537,
      "Ġ71": 6538,
      "Ġrealized": 6539,
      "ructuring": 6540,
      "Ġtrends": 6541,
      "ĠEBITDA": 6542,
      "zz": 6543,
      "Ġpoverty": 6544,
      "ĠMun": 6545,
      "ĠMil": 6546,
      "ĠMass": 6547,
      "ĠFree": 6548,
      "Ġeconomies": 6549,
      "ĠIndex": 6550,
      "ĠPhilipp": 6551,
      "Ġexpanded": 6552,
      "EV": 6553,
      "kin": 6554,
      "Ġod": 6555,
      "Ġhate": 6556,
      "Ġyesterday": 6557,
      "ĠAv": 6558,
      "ĠPower": 6559,
      "Ġrail": 6560,
      "Ġrating": 6561,
      "Ġagent": 6562,
      "hips": 6563,
      "ELY": 6564,
      "Ġsteel": 6565,
      "Ġcandidate": 6566,
      "Ġnarration": 6567,
      "ĠStephen": 6568,
      "nb": 6569,
      "Ġnature": 6570,
      "ĠRoy": 6571,
      "issions": 6572,
      "Ġentry": 6573,
      "Ġrequires": 6574,
      "Ġsites": 6575,
      "ividend": 6576,
      "Ġreddit": 6577,
      ".**": 6578,
      "FC": 6579,
      "His": 6580,
      "oices": 6581,
      "rated": 6582,
      "Ġsouth": 6583,
      "Ġexport": 6584,
      "Ġ38": 6585,
      "Ġmath": 6586,
      "Ġspecifically": 6587,
      "Ġefficiency": 6588,
      "nam": 6589,
      "ĠâĢĿ": 6590,
      "Ġfem": 6591,
      "ady": 6592,
      "Ġrig": 6593,
      "comes": 6594,
      "Ġanymore": 6595,
      "Ġsupporting": 6596,
      "Ġaffili": 6597,
      "Ġschools": 6598,
      "Ġsteady": 6599,
      "TAL": 6600,
      "mes": 6601,
      "ĠPe": 6602,
      "ĠPut": 6603,
      "ĠREPOR": 6604,
      "Ġeval": 6605,
      "Ġparticipate": 6606,
      "Ġstopped": 6607,
      "Ġtariffs": 6608,
      "Ġfired": 6609,
      "ĠIraq": 6610,
      "Ġgap": 6611,
      "ĠBloomberg": 6612,
      "ĠHAS": 6613,
      "Ġintended": 6614,
      "Ġdisrupt": 6615,
      "Ġregulation": 6616,
      "Ġtells": 6617,
      "yeong": 6618,
      "Ġtypes": 6619,
      "Ġequivalent": 6620,
      "Ġtemper": 6621,
      "SU": 6622,
      "eutsche": 6623,
      "away": 6624,
      "Ġposting": 6625,
      "ĠProduct": 6626,
      "Ġfilings": 6627,
      "Ġrandom": 6628,
      "hat": 6629,
      "Ġson": 6630,
      "Ġbed": 6631,
      "enda": 6632,
      "emen": 6633,
      "Ġdrilling": 6634,
      "Adds": 6635,
      "Ġseriously": 6636,
      "Ġenterprise": 6637,
      "ĠCFO": 6638,
      "Ġglobally": 6639,
      "Ġcontributed": 6640,
      "Shares": 6641,
      "Ġbankruptcy": 6642,
      "ĠFortune": 6643,
      "hire": 6644,
      "rist": 6645,
      "het": 6646,
      "omer": 6647,
      "ĠTher": 6648,
      "ĠBi": 6649,
      "ĠBecause": 6650,
      "ĠRough": 6651,
      "Ġvul": 6652,
      "REN": 6653,
      "ARY": 6654,
      "ĠReport": 6655,
      "Ġtourna": 6656,
      "ĠInternet": 6657,
      "Get": 6658,
      "cal": 6659,
      "Ġdad": 6660,
      "leum": 6661,
      "Ġrup": 6662,
      "ĠGO": 6663,
      "Ġrisen": 6664,
      "Ġwinner": 6665,
      "Ġofferings": 6666,
      "Ġdistributions": 6667,
      "Ġapart": 6668,
      "Ġintegrated": 6669,
      "Ġsegment": 6670,
      "ĠTokyo": 6671,
      "Super": 6672,
      "ached": 6673,
      "ĠPenn": 6674,
      "Ġsheet": 6675,
      "show": 6676,
      "riend": 6677,
      "Ġordered": 6678,
      "reland": 6679,
      "ĠSlideshow": 6680,
      "ĠRam": 6681,
      "outs": 6682,
      "agen": 6683,
      "ĠVenezuel": 6684,
      "Ġfeet": 6685,
      "Ġextend": 6686,
      "ĠTHAT": 6687,
      "Ġobvious": 6688,
      "Ġpolitics": 6689,
      "priate": 6690,
      "Yes": 6691,
      "afe": 6692,
      "Ġsought": 6693,
      "Ġfinances": 6694,
      "Int": 6695,
      "Ġknowing": 6696,
      "Ġblue": 6697,
      "ĠPharmaceutical": 6698,
      "backed": 6699,
      "Ġattractive": 6700,
      "ĠIndustrial": 6701,
      "ĠCounty": 6702,
      "Ġcircumst": 6703,
      "ĠBuy": 6704,
      "ĠLee": 6705,
      "Ġ42": 6706,
      "luded": 6707,
      "Ġsmo": 6708,
      "Ġbelieved": 6709,
      "76": 6710,
      "Over": 6711,
      "Tube": 6712,
      "pass": 6713,
      "Ġtro": 6714,
      "ĠSeries": 6715,
      "ĠRUP": 6716,
      "than": 6717,
      "ĠLu": 6718,
      "Ġcontains": 6719,
      "Ġimpossible": 6720,
      "Ġfollows": 6721,
      "Ġinitially": 6722,
      "Ġultimately": 6723,
      "ĠPakistan": 6724,
      "CK": 6725,
      "upp": 6726,
      "Ħ¢": 6727,
      "lyn": 6728,
      "ĠMike": 6729,
      "ĠJac": 6730,
      "eutics": 6731,
      "Ġ1995": 6732,
      "Ġentered": 6733,
      "ĠSpain": 6734,
      "Ġborrowing": 6735,
      "Ġestablish": 6736,
      "ĠBuffett": 6737,
      "Ġpiece": 6738,
      "known": 6739,
      "encing": 6740,
      "Ġpool": 6741,
      "imp": 6742,
      "ĠMoh": 6743,
      "ĠKurd": 6744,
      "anuel": 6745,
      "onto": 6746,
      "Ġdiscussions": 6747,
      "iest": 6748,
      "ĠAgree": 6749,
      "sey": 6750,
      "ĠYes": 6751,
      "Ġclot": 6752,
      "Ġcollabor": 6753,
      "Ġelsewhere": 6754,
      "Ġlegisl": 6755,
      "Ġdoctor": 6756,
      "Ġharassment": 6757,
      "rehensive": 6758,
      "82": 6759,
      "Ġbox": 6760,
      "Ġhits": 6761,
      "ader": 6762,
      "ĠFDA": 6763,
      "ĠReform": 6764,
      "Ġappreciate": 6765,
      "Ġgrocer": 6766,
      "ae": 6767,
      "ano": 6768,
      "ĠBoth": 6769,
      "chi": 6770,
      "ountain": 6771,
      "ĠUnder": 6772,
      "Ġhandle": 6773,
      "Ġtenants": 6774,
      "Ġsurprised": 6775,
      "Ġsilver": 6776,
      "ĠTaiwan": 6777,
      "ĠRUPEES": 6778,
      "erer": 6779,
      "Ġcommodities": 6780,
      "Investors": 6781,
      "Ġlawyers": 6782,
      "ĶĢâĶĢâĶĢâĶĢâ": 6783,
      "Ġconflict": 6784,
      "/?": 6785,
      "uris": 6786,
      "ĠMn": 6787,
      "Ġplays": 6788,
      "Ġ55": 6789,
      "Ġappears": 6790,
      "Ġscience": 6791,
      "Ġflaw": 6792,
      "ĠACQU": 6793,
      "abil": 6794,
      "Ġentreprene": 6795,
      "ribution": 6796,
      "Ġsuccessfully": 6797,
      "Ġfailure": 6798,
      "Ġmargins": 6799,
      "Ġresidents": 6800,
      "ydney": 6801,
      "700": 6802,
      "Or": 6803,
      "Ġsli": 6804,
      "Ġsides": 6805,
      "Ġfed": 6806,
      "ĠSup": 6807,
      "ores": 6808,
      "ĠKell": 6809,
      "ĠVer": 6810,
      "Ġviews": 6811,
      "Ġfavour": 6812,
      "ĠGoldman": 6813,
      "ĠAPPRO": 6814,
      "rate": 6815,
      "Ġcaught": 6816,
      "ali": 6817,
      "Ġmand": 6818,
      "âĢ¢": 6819,
      "acro": 6820,
      "Ġoutcome": 6821,
      "ological": 6822,
      "Ġvalued": 6823,
      "Ġreferring": 6824,
      "ĠIndones": 6825,
      "Ġemployer": 6826,
      "Ġdiversified": 6827,
      "Ġfairly": 6828,
      "Ġwallet": 6829,
      "ĠCOMPANY": 6830,
      "Ġcrackdown": 6831,
      "Ġpandemic": 6832,
      "aly": 6833,
      "ĠCost": 6834,
      "ĠPyeong": 6835,
      "ĠGra": 6836,
      "Ġcorrection": 6837,
      "Ġvoted": 6838,
      "ca": 6839,
      "Ġmicro": 6840,
      "ĠNO": 6841,
      "aba": 6842,
      "Ġperhaps": 6843,
      "Ġperiods": 6844,
      "Ġaircraft": 6845,
      "ĠMyanmar": 6846,
      "Ġessentially": 6847,
      "%)": 6848,
      "ĠDO": 6849,
      "Ġends": 6850,
      "Ġfinancially": 6851,
      "Ġrelating": 6852,
      "ĠArgent": 6853,
      "Ġconnection": 6854,
      "ĠIsraeli": 6855,
      "ĠGovernor": 6856,
      "ĠAnnual": 6857,
      "DS": 6858,
      "vid": 6859,
      "ersey": 6860,
      "Ġaside": 6861,
      "INT": 6862,
      "Ġstruck": 6863,
      "ahah": 6864,
      "Ġexciting": 6865,
      "Ġadvisory": 6866,
      "Ġpresentation": 6867,
      "Ġcandidates": 6868,
      "Ġsomewhere": 6869,
      "Ġscenario": 6870,
      "ĠRESULTS": 6871,
      "gs": 6872,
      "lus": 6873,
      "eck": 6874,
      "Ġdeleg": 6875,
      "agon": 6876,
      "ailing": 6877,
      "Ġgrown": 6878,
      "EDIT": 6879,
      "ĠForward": 6880,
      "Ġimprovement": 6881,
      "Ġmachine": 6882,
      "ĠEXPECTED": 6883,
      "gers": 6884,
      "ien": 6885,
      "Ġmechan": 6886,
      "Ġstability": 6887,
      "Ġreput": 6888,
      "Ġfellow": 6889,
      "Ġmistake": 6890,
      "Ġadminist": 6891,
      "Ġlanguage": 6892,
      "ĠTherap": 6893,
      "nel": 6894,
      "rich": 6895,
      "Ġcert": 6896,
      "inger": 6897,
      "Ġtalent": 6898,
      "Ġbrother": 6899,
      "Ġrecords": 6900,
      "Ġpurchased": 6901,
      "ĠChristmas": 6902,
      "Under": 6903,
      "Ġinitiatives": 6904,
      "Ġmanufacturers": 6905,
      "Ġprincipal": 6906,
      "900": 6907,
      "Acc": 6908,
      "erous": 6909,
      "Ġwire": 6910,
      "ĠAI": 6911,
      "Ġscand": 6912,
      "Ġvalid": 6913,
      "Ġsquare": 6914,
      "Cong": 6915,
      "ĠSydney": 6916,
      "ĠEV": 6917,
      "ĠTOTAL": 6918,
      "Ġdepending": 6919,
      "Ġnewsroom": 6920,
      "ception": 6921,
      "Ġfaced": 6922,
      "Ġreforms": 6923,
      "Ġrapidly": 6924,
      "Ġbattery": 6925,
      "De": 6926,
      "Looking": 6927,
      "rick": 6928,
      "âĦ¢": 6929,
      "Ġsending": 6930,
      "ĠIreland": 6931,
      "ĠSach": 6932,
      "ĠFut": 6933,
      "Ġaggreg": 6934,
      "ensus": 6935,
      "Ġshopping": 6936,
      "Ġpenal": 6937,
      "worth": 6938,
      "iter": 6939,
      "leading": 6940,
      "Ġyoun": 6941,
      "ĠBest": 6942,
      "ĠPublic": 6943,
      "ĠHol": 6944,
      "Ġsells": 6945,
      "Ġapartment": 6946,
      "Ġdeduct": 6947,
      "Ġconsulting": 6948,
      "Ġguarantee": 6949,
      "ĠEarnings": 6950,
      "ĠDistrict": 6951,
      "Europe": 6952,
      "Well": 6953,
      "Ã©": 6954,
      "ĠTop": 6955,
      "ĠGre": 6956,
      "ointing": 6957,
      "uchin": 6958,
      "ICAL": 6959,
      "Ġemployers": 6960,
      "Ġviolence": 6961,
      "âĢįâĢĭ": 6962,
      "83": 6963,
      "iary": 6964,
      "ato": 6965,
      "ĠWAS": 6966,
      "Ġoutperform": 6967,
      "compl": 6968,
      "ĠMcC": 6969,
      "Ġdetermine": 6970,
      "fortunately": 6971,
      "RL": 6972,
      "asp": 6973,
      "lly": 6974,
      "ĠSU": 6975,
      "ĠTal": 6976,
      "ĠCASH": 6977,
      "Ġacad": 6978,
      "Ġqualif": 6979,
      "ĠProper": 6980,
      "Ġcontribute": 6981,
      "ĠHolding": 6982,
      "Ġexercise": 6983,
      "ĠVirginia": 6984,
      "Ġproced": 6985,
      "ĠNav": 6986,
      "kshire": 6987,
      "Ġproductivity": 6988,
      "ĠMinistry": 6989,
      "Another": 6990,
      "Ġhonestly": 6991,
      "Ġsustainable": 6992,
      "ĠLimited": 6993,
      "ĠPyeongchang": 6994,
      "iture": 6995,
      "Ġfashion": 6996,
      "arry": 6997,
      "ola": 6998,
      "Ġpoliticians": 6999,
      "ĠAsset": 7000,
      "Ġdeadline": 7001,
      "Ġvirtual": 7002,
      "onest": 7003,
      "omson": 7004,
      "rock": 7005,
      "ĠCzech": 7006,
      "ĠAh": 7007,
      "Ġveter": 7008,
      "ulture": 7009,
      "Ġhighlight": 7010,
      "Ġrisky": 7011,
      "iamond": 7012,
      "Ġcounsel": 7013,
      "Ġdecreased": 7014,
      "founder": 7015,
      "bus": 7016,
      "high": 7017,
      "Ġhire": 7018,
      "Ġforg": 7019,
      "ĠRad": 7020,
      "uma": 7021,
      "Ġovernight": 7022,
      "Ġparticipants": 7023,
      "Ġsubstantial": 7024,
      "Many": 7025,
      "may": 7026,
      "uj": 7027,
      "Ġmutual": 7028,
      "ĠRO": 7029,
      "Ġtruck": 7030,
      "isters": 7031,
      "Ġanywhere": 7032,
      "ASED": 7033,
      "ĠYouTube": 7034,
      "Ġbrokers": 7035,
      "Ġinstru": 7036,
      "Ġrestructuring": 7037,
      "EMBER": 7038,
      "ĠOnce": 7039,
      "Donald": 7040,
      "Ġtournament": 7041,
      "ias": 7042,
      "Ġanonym": 7043,
      "Ġreact": 7044,
      "Ġshop": 7045,
      "ĠJersey": 7046,
      "Ġpriced": 7047,
      "Ġaggressive": 7048,
      "Ġsymbol": 7049,
      "Ġresearchers": 7050,
      "KE": 7051,
      "Ġtied": 7052,
      "lements": 7053,
      "ĠPrem": 7054,
      "ĠEM": 7055,
      "rena": 7056,
      "Ġcontained": 7057,
      "ĠThanks": 7058,
      "ĠRepresent": 7059,
      "Ġslowly": 7060,
      "Ġfemale": 7061,
      "SAN": 7062,
      "Total": 7063,
      "bon": 7064,
      "Ġce": 7065,
      "isan": 7066,
      "ashes": 7067,
      "eting": 7068,
      "ĠPART": 7069,
      "Ġweaken": 7070,
      "ĠHaw": 7071,
      "ureau": 7072,
      "Ġrepay": 7073,
      "Ġsubreddit": 7074,
      "TSE": 7075,
      "Ġlucky": 7076,
      "Ġaccelerate": 7077,
      "scribe": 7078,
      "ĠStanley": 7079,
      "oscow": 7080,
      "Ġvulner": 7081,
      "From": 7082,
      "Ġcorpor": 7083,
      "Ġpsych": 7084,
      "Ġfill": 7085,
      "ideos": 7086,
      "Ġretired": 7087,
      "ĠSpec": 7088,
      "ĠPlc": 7089,
      "Ġprospects": 7090,
      "Ġarrested": 7091,
      "Ġcircumstances": 7092,
      "ao": 7093,
      "kens": 7094,
      "Ġdiagn": 7095,
      "idency": 7096,
      "ĠFA": 7097,
      "ĠHen": 7098,
      "ĠHam": 7099,
      "ĠLife": 7100,
      "Ġupside": 7101,
      "Ġarm": 7102,
      "Ġdefend": 7103,
      "Ġrequests": 7104,
      "equality": 7105,
      "ĠMARKET": 7106,
      "Ġsen": 7107,
      "Ġpays": 7108,
      "Ġfort": 7109,
      "igital": 7110,
      "ighter": 7111,
      "Ġadds": 7112,
      "Ġentering": 7113,
      "Ġobt": 7114,
      "riers": 7115,
      "Ġmovie": 7116,
      "ynam": 7117,
      "Ģâł": 7118,
      "Ġlitigation": 7119,
      "lan": 7120,
      "Ġpark": 7121,
      "Ġfears": 7122,
      "ĠARE": 7123,
      "Ġshorts": 7124,
      "ogan": 7125,
      "Ġflu": 7126,
      "urisd": 7127,
      "ĠFox": 7128,
      "ĠNass": 7129,
      "ĠNiger": 7130,
      "ĠUp": 7131,
      "ĠJPM": 7132,
      "Ġspoke": 7133,
      "obb": 7134,
      "ANS": 7135,
      "Ġcrime": 7136,
      "Ġflights": 7137,
      "ðŁı": 7138,
      "Ġphot": 7139,
      "Ġthoughts": 7140,
      "income": 7141,
      "ĠConn": 7142,
      "ĠALL": 7143,
      "Ġclimbed": 7144,
      "ho": 7145,
      "new": 7146,
      "oung": 7147,
      "ĠNY": 7148,
      "ĠHill": 7149,
      "Ġlever": 7150,
      "Ġsole": 7151,
      "Ġtermin": 7152,
      "Ġqualified": 7153,
      "usalem": 7154,
      "inking": 7155,
      "ĠSection": 7156,
      "Ġstance": 7157,
      "Ġjurisd": 7158,
      "Ġagenda": 7159,
      "ATES": 7160,
      "Ġexpecting": 7161,
      "ĠTHOM": 7162,
      "Ġachieved": 7163,
      "fire": 7164,
      "rative": 7165,
      "Ġounce": 7166,
      "Ġonto": 7167,
      "ĠTR": 7168,
      "ĠDeutsche": 7169,
      "ĠStory": 7170,
      "Ġoperator": 7171,
      "Ġnetworks": 7172,
      "thew": 7173,
      "Ġdiscip": 7174,
      "Ġinstall": 7175,
      "Ġexperiences": 7176,
      "rypto": 7177,
      "Forward": 7178,
      "Ġaims": 7179,
      "ĠUNIT": 7180,
      "ĠAutom": 7181,
      "Ġtransportation": 7182,
      "ĠAgreement": 7183,
      "Nasdaq": 7184,
      "Sec": 7185,
      "ĠAF": 7186,
      "ĠPot": 7187,
      "Ġdefe": 7188,
      "Ġcomprehensive": 7189,
      "ĠLeg": 7190,
      "akh": 7191,
      "ĠĠĠ": 7192,
      "Ġlows": 7193,
      "Ġresulting": 7194,
      "Ġtests": 7195,
      "ĠMichigan": 7196,
      "Ġreaching": 7197,
      "Ġsuffered": 7198,
      "ĠMuslim": 7199,
      "Ġprosecutors": 7200,
      "Ġpet": 7201,
      "rol": 7202,
      "ĠIr": 7203,
      "erse": 7204,
      "ĠBell": 7205,
      "ĠBoeing": 7206,
      "ĠFargo": 7207,
      "ĠLP": 7208,
      "Ġchannel": 7209,
      "commerce": 7210,
      "Ġrecip": 7211,
      "Ġshortly": 7212,
      "gery": 7213,
      "Ġdetailed": 7214,
      "ĠJANUARY": 7215,
      "Ġargument": 7216,
      "ĠToronto": 7217,
      "Ġathletes": 7218,
      "igious": 7219,
      "umber": 7220,
      "Ġinsp": 7221,
      "Ġfewer": 7222,
      "ĠSea": 7223,
      "ĠBerlin": 7224,
      "Ġaver": 7225,
      "onent": 7226,
      "Ġstreet": 7227,
      "Ġconcent": 7228,
      "ĠWeb": 7229,
      "abs": 7230,
      "Then": 7231,
      "Ġmonit": 7232,
      "Ġ66": 7233,
      "Ġremarks": 7234,
      "Ġdrivers": 7235,
      "Ġvotes": 7236,
      "DATE": 7237,
      "gar": 7238,
      "orrect": 7239,
      "Ġtokens": 7240,
      "icul": 7241,
      "Ġstuck": 7242,
      "ĠPy": 7243,
      "ĠOs": 7244,
      "Ġacknow": 7245,
      "bert": 7246,
      "Ġprefer": 7247,
      "Ġmeetings": 7248,
      "Ġpattern": 7249,
      "Ġbreaking": 7250,
      "Ġresidential": 7251,
      "Ġcaution": 7252,
      "Ġdispute": 7253,
      "Brit": 7254,
      "source": 7255,
      "video": 7256,
      "war": 7257,
      "Ġwave": 7258,
      "ĠSO": 7259,
      "Ġbrain": 7260,
      "TRLY": 7261,
      "ĠEND": 7262,
      "ĠSimon": 7263,
      "FORM": 7264,
      "ĠSusan": 7265,
      "ĠTHOMSON": 7266,
      "DR": 7267,
      "Dec": 7268,
      "Qu": 7269,
      "Ġaf": 7270,
      "Ġboy": 7271,
      "ician": 7272,
      "lean": 7273,
      "ĠCorporate": 7274,
      "ĠBrown": 7275,
      "Ġcoach": 7276,
      "Ġcopper": 7277,
      "Ġdemands": 7278,
      "Ġcompletion": 7279,
      "Ġvolumes": 7280,
      "ĠJerusalem": 7281,
      "Ġske": 7282,
      "Ġleaves": 7283,
      "Ġapparent": 7284,
      "ĠCoast": 7285,
      "ĠValley": 7286,
      "Ġdetermined": 7287,
      "Ġentertainment": 7288,
      "?âĢĿ": 7289,
      "IX": 7290,
      "IZ": 7291,
      "PE": 7292,
      "SO": 7293,
      "Ġpure": 7294,
      "Ġlol": 7295,
      "acc": 7296,
      "ĠDan": 7297,
      "ulations": 7298,
      "ERG": 7299,
      "Ġ48": 7300,
      "inked": 7301,
      "Ġprocessing": 7302,
      "Cap": 7303,
      "Rock": 7304,
      "backs": 7305,
      "esome": 7306,
      "Ġbaby": 7307,
      "Ġfalse": 7308,
      "ĠRen": 7309,
      "Ġagric": 7310,
      "Ġdram": 7311,
      "ĠExp": 7312,
      "Ġthousand": 7313,
      "Ġmacro": 7314,
      "ĠTS": 7315,
      "ĠCal": 7316,
      "ĠBrent": 7317,
      "ĠHer": 7318,
      "arters": 7319,
      "Ġtherefore": 7320,
      "indows": 7321,
      "Ġreturned": 7322,
      "Ġstudies": 7323,
      "ĠManager": 7324,
      "ĠOFFER": 7325,
      "Ġbare": 7326,
      "aine": 7327,
      "ĠLatin": 7328,
      "Ġclar": 7329,
      "USA": 7330,
      "Ġcompetitors": 7331,
      "ynn": 7332,
      "Ġsubsid": 7333,
      "Ġfundamentals": 7334,
      "Ġlenders": 7335,
      "vention": 7336,
      "Ġdies": 7337,
      "ĠCAN": 7338,
      "ĠMary": 7339,
      "ĠMAN": 7340,
      "ĠBULL": 7341,
      "Ġran": 7342,
      "ĠTheir": 7343,
      "Ġgovernor": 7344,
      "Thanks": 7345,
      "inds": 7346,
      "Ġpharmaceutical": 7347,
      "ISC": 7348,
      "Ġmetals": 7349,
      "vereign": 7350,
      "Ġroute": 7351,
      "Ġrepeatedly": 7352,
      "lad": 7353,
      "oma": 7354,
      "Ġrein": 7355,
      "Ġgather": 7356,
      "ĠSee": 7357,
      "add": 7358,
      "ĠJoe": 7359,
      "izer": 7360,
      "Ġprovision": 7361,
      "Ġkeeps": 7362,
      "Ġelectricity": 7363,
      "Ġneighbor": 7364,
      "iber": 7365,
      "mail": 7366,
      "hel": 7367,
      "Ġbt": 7368,
      "Ġbomb": 7369,
      "Ġhike": 7370,
      "Ġhiring": 7371,
      "Ġlov": 7372,
      "Ġgift": 7373,
      "Ġfranch": 7374,
      "eman": 7375,
      "Ġoutcomes": 7376,
      "Ġundert": 7377,
      "Ġflood": 7378,
      "Ġcentre": 7379,
      "Ġcentury": 7380,
      "rien": 7381,
      "ĠResources": 7382,
      "Superstonk": 7383,
      "BT": 7384,
      "lish": 7385,
      "rid": 7386,
      "ether": 7387,
      "ĠBur": 7388,
      "Ġconsequ": 7389,
      "Ġaccompl": 7390,
      "Ġintent": 7391,
      "Ġdisplay": 7392,
      "vernment": 7393,
      "Ġdefault": 7394,
      "Ġgenerated": 7395,
      "ĠResults": 7396,
      "Ġcyber": 7397,
      "ĠSupp": 7398,
      "ĠWells": 7399,
      "roup": 7400,
      "Ġhal": 7401,
      "Ġlived": 7402,
      "Ġconclus": 7403,
      "Ġchair": 7404,
      "ipedia": 7405,
      "Ġupcoming": 7406,
      "ĠKh": 7407,
      "Ġsupplement": 7408,
      "ikipedia": 7409,
      "Ġartific": 7410,
      "Ġregardless": 7411,
      "Ġvoters": 7412,
      "Ġconsistently": 7413,
      "WE": 7414,
      "yang": 7415,
      "Ġrow": 7416,
      "ĠBM": 7417,
      "Ġexam": 7418,
      "Ġactively": 7419,
      "ĠPrice": 7420,
      "Ġpassion": 7421,
      "ĠMarc": 7422,
      "Ġcontributions": 7423,
      "Ġcausing": 7424,
      "noon": 7425,
      "ĠGROW": 7426,
      "Ġdozens": 7427,
      "ĠOhio": 7428,
      "Ġsorry": 7429,
      "ĠIRA": 7430,
      "ĠMoscow": 7431,
      "Ġwhom": 7432,
      "Ġvoice": 7433,
      "ĠLisa": 7434,
      "Ġspark": 7435,
      "liers": 7436,
      "Ġnumerous": 7437,
      "Ġcontrols": 7438,
      "Ġfastest": 7439,
      "Ġdialing": 7440,
      "Ġsurprise": 7441,
      "Ġcomplain": 7442,
      "Ġcontrolled": 7443,
      "ĠKurdish": 7444,
      "WA": 7445,
      "ĠSur": 7446,
      "eutral": 7447,
      "ERV": 7448,
      "ditionally": 7449,
      "Ġsolicit": 7450,
      "ĠMexican": 7451,
      "KY": 7452,
      "PAR": 7453,
      "UG": 7454,
      "inent": 7455,
      "Ġbpd": 7456,
      "ĠCA": 7457,
      "ortion": 7458,
      "Ġperman": 7459,
      "anticip": 7460,
      "Ġsupposed": 7461,
      "aughter": 7462,
      "-$": 7463,
      "Ġpound": 7464,
      "ĠTwo": 7465,
      "ĠEstate": 7466,
      "âĢĿ),": 7467,
      "Ġregions": 7468,
      "ĠREIT": 7469,
      "ĠQTRLY": 7470,
      "egas": 7471,
      "Ġeastern": 7472,
      "Ġsuggests": 7473,
      "Ġintegration": 7474,
      "Ġtraffic": 7475,
      "Ġterritory": 7476,
      "Im": 7477,
      "kins": 7478,
      "Ġbail": 7479,
      "Ġpun": 7480,
      "ĠHou": 7481,
      "agree": 7482,
      "Ġsovereign": 7483,
      "Ġfinish": 7484,
      "Ġstrikes": 7485,
      "mann": 7486,
      "Ġelimin": 7487,
      "Ġagreements": 7488,
      "ĠOnly": 7489,
      "Ġlabour": 7490,
      "Ġdisclosed": 7491,
      "ĠINCREASE": 7492,
      "Contact": 7493,
      "ĠLitigation": 7494,
      "Despite": 7495,
      "rum": 7496,
      "Ġtie": 7497,
      "Ġnom": 7498,
      "acco": 7499,
      "amest": 7500,
      "ĠRoth": 7501,
      "ĠDra": 7502,
      "Ġvideos": 7503,
      "ĠKat": 7504,
      "ibr": 7505,
      "Ġquarters": 7506,
      "anked": 7507,
      "Ġcommodity": 7508,
      "attle": 7509,
      "forward": 7510,
      "Ġbehalf": 7511,
      "ĠSachs": 7512,
      "test": 7513,
      "icing": 7514,
      "ĠBal": 7515,
      "irm": 7516,
      "ilty": 7517,
      "Ġshall": 7518,
      "Ġalg": 7519,
      "ĠTrading": 7520,
      "Ġpayable": 7521,
      "Ġinsure": 7522,
      "Ġissu": 7523,
      "Ġfloat": 7524,
      "Ġassistance": 7525,
      "AKE": 7526,
      "Ġsemi": 7527,
      "ĠGameStop": 7528,
      "CN": 7529,
      "base": 7530,
      "Ġinequality": 7531,
      "Ġreward": 7532,
      "ĠClin": 7533,
      "ĠAff": 7534,
      "Ġsport": 7535,
      "Ġcoff": 7536,
      "Ġkm": 7537,
      "INE": 7538,
      "Ġbenefic": 7539,
      "Ġcontrovers": 7540,
      "Ġaccessed": 7541,
      "Ġbroadcast": 7542,
      "Ġdestroy": 7543,
      "ĠLiber": 7544,
      "Ġexcellent": 7545,
      "ðŁĴİ": 7546,
      "ĠMnuchin": 7547,
      "ĠBang": 7548,
      "Ġvill": 7549,
      "ĠLouis": 7550,
      "Ġaccident": 7551,
      "ĠAdjusted": 7552,
      "Ġpromise": 7553,
      "ĠMarketing": 7554,
      "empts": 7555,
      "Additional": 7556,
      "Ġconnected": 7557,
      "ueller": 7558,
      "Ġlender": 7559,
      "ĠAp": 7560,
      "Ġramp": 7561,
      "ĠDIV": 7562,
      "Ġ800": 7563,
      "Ġtopic": 7564,
      "Ġphase": 7565,
      "Ġtotally": 7566,
      "UND": 7567,
      "ĠSteven": 7568,
      "ĠEmm": 7569,
      "Ġincredibly": 7570,
      "NG": 7571,
      "ĸĪ": 7572,
      "Ġtack": 7573,
      "Ġhalt": 7574,
      "Ġnobody": 7575,
      "ĠCro": 7576,
      "ĠRem": 7577,
      "ĠJobs": 7578,
      "ressive": 7579,
      "ĠIND": 7580,
      "Ġaudio": 7581,
      "ĠGeorge": 7582,
      "ĠDisney": 7583,
      "low": 7584,
      "wed": 7585,
      "ĠChen": 7586,
      "ĠMiche": 7587,
      "ORS": 7588,
      "ICH": 7589,
      "Ġbanned": 7590,
      "Ġfailing": 7591,
      "Ġliabilities": 7592,
      "ĠCONTENT": 7593,
      "Ġconversation": 7594,
      "abinet": 7595,
      "IJ": 7596,
      "ĠBR": 7597,
      "ĠPu": 7598,
      "ĠRoss": 7599,
      "eping": 7600,
      "Ġagents": 7601,
      "weight": 7602,
      "ĠCarillion": 7603,
      "Ġspecialty": 7604,
      "Ġboosted": 7605,
      "ĠBroad": 7606,
      "HOLD": 7607,
      "ais": 7608,
      "uits": 7609,
      "ora": 7610,
      "Ġmakers": 7611,
      "ĠSar": 7612,
      "ĠTour": 7613,
      "ĠCy": 7614,
      "ĠNorthern": 7615,
      "ĠJack": 7616,
      "Ġouts": 7617,
      "ONE": 7618,
      "obby": 7619,
      "Ġsubsequ": 7620,
      "Ġguilty": 7621,
      "ACK": 7622,
      "Ġfacts": 7623,
      "Ġurged": 7624,
      "HN": 7625,
      "bur": 7626,
      "ras": 7627,
      "Ġauction": 7628,
      "Ġblog": 7629,
      "resa": 7630,
      "Ġcontext": 7631,
      "Ġenact": 7632,
      "ogue": 7633,
      "Ġ73": 7634,
      "Ġflows": 7635,
      "Ġguard": 7636,
      "Ġdefined": 7637,
      "ðŁĳ": 7638,
      "shit": 7639,
      "Ġresulted": 7640,
      "Ġthinks": 7641,
      "ABLE": 7642,
      "ĠEXPECTS": 7643,
      "Ġanalytics": 7644,
      "According": 7645,
      "Ĥ¬": 7646,
      "Ġtensions": 7647,
      "Ġnone": 7648,
      "ĠFIL": 7649,
      "Ġfrust": 7650,
      "ĠLLP": 7651,
      "Ġ51": 7652,
      "ĠCommon": 7653,
      "Ġcreation": 7654,
      "Ġprogramme": 7655,
      "ĠNetwork": 7656,
      "Ġtargeted": 7657,
      "Ġfunction": 7658,
      "Ġpursue": 7659,
      "1000": 7660,
      "ih": 7661,
      "vy": 7662,
      "atri": 7663,
      "Ġcere": 7664,
      "Ġdin": 7665,
      "ĠSqu": 7666,
      "Ġbeaut": 7667,
      "Ġvir": 7668,
      "ĠLas": 7669,
      "rawn": 7670,
      "Ġ49": 7671,
      "Ġchemical": 7672,
      "Ġformal": 7673,
      "Ġexcluding": 7674,
      "ĠSPONS": 7675,
      "Ġtenant": 7676,
      "uilding": 7677,
      "rad": 7678,
      "hem": 7679,
      "Ġfake": 7680,
      "Ġspons": 7681,
      "Ġ44": 7682,
      "Ġ99": 7683,
      "Ġturning": 7684,
      "bridge": 7685,
      "ĠSenator": 7686,
      "Ġutil": 7687,
      "contin": 7688,
      "Ġrestaurant": 7689,
      "ĠMatthew": 7690,
      "ĠOrganization": 7691,
      "oor": 7692,
      "Ġ250": 7693,
      "Ġ1000": 7694,
      "Ġprint": 7695,
      "Ġkill": 7696,
      "ĠYemen": 7697,
      "Ġenable": 7698,
      "ordin": 7699,
      "Ġappropriate": 7700,
      "plan": 7701,
      "plus": 7702,
      "Ġcolle": 7703,
      "Ġpointed": 7704,
      "Ġsixth": 7705,
      "ORED": 7706,
      "ĠCollege": 7707,
      "FL": 7708,
      "Ġsets": 7709,
      "ĠEric": 7710,
      "Ġhell": 7711,
      "viation": 7712,
      "lined": 7713,
      "Ġpromised": 7714,
      "Ġpromote": 7715,
      "Ġclaimed": 7716,
      "Ġbiot": 7717,
      "ĠAuthor": 7718,
      "Ġcomplaint": 7719,
      "Ġsubsidiaries": 7720,
      "Ġcomparable": 7721,
      "Ġflags": 7722,
      "TE": 7723,
      "pop": 7724,
      "Ġdark": 7725,
      "ĠImp": 7726,
      "ĠFood": 7727,
      "ĠDaniel": 7728,
      "Ġafternoon": 7729,
      "Ġhelpful": 7730,
      "ĠREL": 7731,
      "Ġcontribution": 7732,
      "Ġthreats": 7733,
      "Ġrestaurants": 7734,
      "tech": 7735,
      "Ġec": 7736,
      "ĠSud": 7737,
      "Ġbeating": 7738,
      "Ġintention": 7739,
      "ENS": 7740,
      "Ġrecall": 7741,
      "Ġprofitability": 7742,
      "Ġ2006": 7743,
      "Ġmeme": 7744,
      "Ġauthority": 7745,
      "cape": 7746,
      "Ġvolatile": 7747,
      "Ġweakness": 7748,
      "ĠTherapeutics": 7749,
      "Ġcorporations": 7750,
      "Apple": 7751,
      "PP": 7752,
      "dum": 7753,
      "iro": 7754,
      "larg": 7755,
      "vin": 7756,
      "Ġhired": 7757,
      "ĠLO": 7758,
      "Ġoffshore": 7759,
      "ĠViet": 7760,
      "ĠVegas": 7761,
      "icted": 7762,
      "Ġsurged": 7763,
      "Ġforever": 7764,
      "itutional": 7765,
      "ĠFederer": 7766,
      "elta": 7767,
      "ĠAlexander": 7768,
      "Ġencourage": 7769,
      "ĠBOARD": 7770,
      "Ġdangerous": 7771,
      "Ġwestern": 7772,
      "Congrat": 7773,
      "HO": 7774,
      "krain": 7775,
      "Ġthus": 7776,
      "stock": 7777,
      "ĠCD": 7778,
      "olf": 7779,
      "ocr": 7780,
      "Ġ52": 7781,
      "ĠCommercial": 7782,
      "Ġfalls": 7783,
      "Ġairlines": 7784,
      "!!!": 7785,
      "Ġassuming": 7786,
      "amestop": 7787,
      "ĠSPONSORED": 7788,
      "HS": 7789,
      "Le": 7790,
      "yout": 7791,
      "ĠTra": 7792,
      "ĠBu": 7793,
      "ĠFIR": 7794,
      "Ġranking": 7795,
      "Ġproof": 7796,
      "Ġunw": 7797,
      "ĠThank": 7798,
      "Ġ43": 7799,
      "Ġdevelopers": 7800,
      "iscl": 7801,
      "Ġregularly": 7802,
      "Ġstreaming": 7803,
      "Ġsomewhat": 7804,
      "ĠEvans": 7805,
      "Economics": 7806,
      "UES": 7807,
      "ipp": 7808,
      "pin": 7809,
      "lev": 7810,
      "ĠPRI": 7811,
      "ĠHide": 7812,
      "Ġ39": 7813,
      "ĠKar": 7814,
      "Ġofficers": 7815,
      "beat": 7816,
      "Today": 7817,
      "ĠHealthcare": 7818,
      "Ġapplicable": 7819,
      "Ġmaxim": 7820,
      "Ġrefugees": 7821,
      "cluding": 7822,
      "Ġtreated": 7823,
      "Ġwal": 7824,
      "Ġlock": 7825,
      "Ġrely": 7826,
      "Ġreference": 7827,
      "ĠMiss": 7828,
      "ĠBANK": 7829,
      "ĠHy": 7830,
      "rowing": 7831,
      "Ġstockholders": 7832,
      "Ġfallen": 7833,
      "ĠPROP": 7834,
      "Ġmachines": 7835,
      "vania": 7836,
      "Russ": 7837,
      "ez": 7838,
      "ussels": 7839,
      "ĠFact": 7840,
      "ĠFTSE": 7841,
      "Ġjour": 7842,
      "ERE": 7843,
      "ĠCompanies": 7844,
      "Ġdeputy": 7845,
      "Ġheads": 7846,
      "ĠManaging": 7847,
      "Ġargue": 7848,
      "Ġcharacter": 7849,
      "BRUARY": 7850,
      "Ġintroduced": 7851,
      "ĠFEBRUARY": 7852,
      "Per": 7853,
      "bro": 7854,
      "des": 7855,
      "face": 7856,
      "ga": 7857,
      "quir": 7858,
      "ĠLOS": 7859,
      "Ġsuppliers": 7860,
      "Ġdeveloper": 7861,
      "Ġopposed": 7862,
      "Ġmetal": 7863,
      "Ġmodest": 7864,
      "ĠEURO": 7865,
      "Ġengaged": 7866,
      "changed": 7867,
      "syl": 7868,
      "Ġenforcement": 7869,
      ";!": 7870,
      "Cons": 7871,
      "KF": 7872,
      "iem": 7873,
      "Ġpair": 7874,
      "Ġhikes": 7875,
      "ĠTay": 7876,
      "ĠTake": 7877,
      "ĠMA": 7878,
      "Ġconcept": 7879,
      "resp": 7880,
      "Ġunivers": 7881,
      "Ġbuys": 7882,
      "ĠFrancis": 7883,
      "sylvania": 7884,
      "!&": 7885,
      "Let": 7886,
      "fed": 7887,
      "ii": 7888,
      "arles": 7889,
      "Ġhod": 7890,
      "Ġnav": 7891,
      "ĠSouthern": 7892,
      "Ġweren": 7893,
      "ĠUs": 7894,
      "ĠHE": 7895,
      "Ġpeers": 7896,
      "Ġfeature": 7897,
      "ACA": 7898,
      "Ġexecution": 7899,
      "Ġnationwide": 7900,
      "Ġpackage": 7901,
      "Ġoblig": 7902,
      "Ġcrowd": 7903,
      "Ġremoved": 7904,
      "ĠAfghanistan": 7905,
      "Ġattributable": 7906,
      "ĠREPORTS": 7907,
      "Ġaggregate": 7908,
      "gies": 7909,
      "nell": 7910,
      "Ġfant": 7911,
      "ĠArena": 7912,
      "Ġstation": 7913,
      "img": 7914,
      "ĠFar": 7915,
      "ĠEr": 7916,
      "ulated": 7917,
      "Ġkilling": 7918,
      "ĠCommerce": 7919,
      "Ġbuyer": 7920,
      "Ġinsight": 7921,
      "Ġtargeting": 7922,
      "ĠPlan": 7923,
      "financial": 7924,
      "Ġcauses": 7925,
      "ĠPeru": 7926,
      "Ġschedule": 7927,
      "Ġcarrying": 7928,
      "Ġenhance": 7929,
      "Ġreferendum": 7930,
      "Ġrupees": 7931,
      "During": 7932,
      "box": 7933,
      "wikipedia": 7934,
      "Ġpock": 7935,
      "Ġhole": 7936,
      "ĠWE": 7937,
      "Ġabroad": 7938,
      "Ġregister": 7939,
      "Ġattempts": 7940,
      "Ġextent": 7941,
      "Star": 7942,
      "ackson": 7943,
      "Ġanswers": 7944,
      "Ġabsolute": 7945,
      "driving": 7946,
      "economic": 7947,
      "Ġmixed": 7948,
      "ĠJonathan": 7949,
      "Ġswitch": 7950,
      "Ġtreas": 7951,
      "isher": 7952,
      "kei": 7953,
      "active": 7954,
      "Ġgranted": 7955,
      "Ġremove": 7956,
      "prises": 7957,
      "Ġdevelopments": 7958,
      "Ġnegotiate": 7959,
      "Ġmerch": 7960,
      "ĠGovernment": 7961,
      "Ġtrouble": 7962,
      "ĠPennsylvania": 7963,
      "Ġscandal": 7964,
      "ĠNassar": 7965,
      "Bitcoin": 7966,
      "break": 7967,
      "cking": 7968,
      "iot": 7969,
      "ko": 7970,
      "Ġisland": 7971,
      "using": 7972,
      "ĠWork": 7973,
      "quis": 7974,
      "open": 7975,
      "Ġnewly": 7976,
      "Ġapps": 7977,
      "Ġ64": 7978,
      "ATING": 7979,
      "Ġrelief": 7980,
      "Ġstrongly": 7981,
      "Ġbuildings": 7982,
      "Ġprojected": 7983,
      "ĠBerkshire": 7984,
      "Ġmaximum": 7985,
      "ĠGeorg": 7986,
      "Ġstrengthen": 7987,
      "Ġreputation": 7988,
      "Ġyounger": 7989,
      "Eng": 7990,
      "cr": 7991,
      "Ġfa": 7992,
      "ĠCS": 7993,
      "ĠCard": 7994,
      "Ġforum": 7995,
      "ĠAli": 7996,
      "emy": 7997,
      "ĠLes": 7998,
      "erved": 7999,
      "Ġfocusing": 8000,
      "iveness": 8001,
      "Ġruled": 8002,
      "Ġprofessor": 8003,
      "ĠEnglish": 8004,
      "Ġpicked": 8005,
      "Ġutilities": 8006,
      "Ġsharply": 8007,
      "ĠINTEREST": 8008,
      "ĠVenezuela": 8009,
      "Ġbol": 8010,
      "ĠBow": 8011,
      "outheast": 8012,
      "ĠOUT": 8013,
      "Ġmarketplace": 8014,
      "orders": 8015,
      "Ġsecret": 8016,
      "Ġcarried": 8017,
      "Ġsurgery": 8018,
      "Ġsolve": 8019,
      "Ġlimits": 8020,
      "ĠSTR": 8021,
      "ĠConst": 8022,
      "Ġpredicted": 8023,
      "Ġstruggled": 8024,
      "Res": 8025,
      "ln": 8026,
      "person": 8027,
      "itness": 8028,
      "ĠCut": 8029,
      "usband": 8030,
      "ĠFIRE": 8031,
      "Ġshipping": 8032,
      "ĠURL": 8033,
      "Ġtruth": 8034,
      "Ġintends": 8035,
      "Ġ02": 8036,
      "Ġstrongest": 8037,
      "Ġcareful": 8038,
      "Ġprivacy": 8039,
      "Ġairport": 8040,
      "Ġdoubled": 8041,
      "Although": 8042,
      "Ġthreatened": 8043,
      "ANGE": 8044,
      "Ġceremon": 8045,
      "COR": 8046,
      "apped": 8047,
      "pts": 8048,
      "Ġble": 8049,
      "Ġpicking": 8050,
      "ership": 8051,
      "ĠHuman": 8052,
      "ĠLE": 8053,
      "Ġresign": 8054,
      "Ġassault": 8055,
      "Ġsubsc": 8056,
      "Ġslump": 8057,
      "ĠBrussels": 8058,
      "Ġunclear": 8059,
      "Aust": 8060,
      "Dav": 8061,
      "North": 8062,
      "RC": 8063,
      "ĠCash": 8064,
      "ĠRock": 8065,
      "ĠDomin": 8066,
      "ĠLib": 8067,
      "ĠJud": 8068,
      "Ġreserve": 8069,
      "ordan": 8070,
      "Ġrecru": 8071,
      "Ġremote": 8072,
      "Ġshel": 8073,
      "ollowing": 8074,
      "Ġwinners": 8075,
      "ĠPlus": 8076,
      "investor": 8077,
      "Ġmarked": 8078,
      "emicon": 8079,
      "Ġglad": 8080,
      "Ġdisappoint": 8081,
      "ĠMotor": 8082,
      "idelity": 8083,
      "ĠPremier": 8084,
      "Form": 8085,
      "Ġweigh": 8086,
      "andon": 8087,
      "Ġunchanged": 8088,
      "rend": 8089,
      "Ġspect": 8090,
      "acked": 8091,
      "Ġwholly": 8092,
      "Ġdebts": 8093,
      "ucker": 8094,
      "aza": 8095,
      "Ġmeaningful": 8096,
      "ĠIMP": 8097,
      "ĠIndonesia": 8098,
      "CON": 8099,
      "bo": 8100,
      "twitter": 8101,
      "wall": 8102,
      "Âł": 8103,
      "ouch": 8104,
      "ette": 8105,
      "ĠCC": 8106,
      "Ġstret": 8107,
      "ĠMueller": 8108,
      "cean": 8109,
      "antly": 8110,
      "ometimes": 8111,
      "Ġwins": 8112,
      "Ġgreenback": 8113,
      "Ġjurisdiction": 8114,
      "largest": 8115,
      "emiconduct": 8116,
      "Dem": 8117,
      "Ġtrem": 8118,
      "itarian": 8119,
      "Ġstands": 8120,
      "that": 8121,
      "ĠGrowth": 8122,
      "ĠInf": 8123,
      "uggle": 8124,
      "Ġmilest": 8125,
      "Ġindexes": 8126,
      "rolled": 8127,
      "Ġinjured": 8128,
      "Ġdiseases": 8129,
      "Ġfundamental": 8130,
      "Ġfarmers": 8131,
      "ĠKeep": 8132,
      "ĠArgentina": 8133,
      "ĠGROWTH": 8134,
      "Like": 8135,
      "core": 8136,
      "dy": 8137,
      "hr": 8138,
      "Ġwake": 8139,
      "Ġlands": 8140,
      "ĠSuch": 8141,
      "ĠSaf": 8142,
      "ĠAverage": 8143,
      "ĠBanking": 8144,
      "ĠRog": 8145,
      "ongyang": 8146,
      "Ġdisagree": 8147,
      "ĠASS": 8148,
      "Both": 8149,
      "Oil": 8150,
      "making": 8151,
      "Ġiron": 8152,
      "edge": 8153,
      "ione": 8154,
      "Ġstood": 8155,
      "uno": 8156,
      "ĠLear": 8157,
      "elines": 8158,
      "Ġspin": 8159,
      "Ġminds": 8160,
      "Ġsimpl": 8161,
      "Ġsupporters": 8162,
      "Ġorganic": 8163,
      "Ġmilitants": 8164,
      "Ġpriority": 8165,
      "Ġawesome": 8166,
      "âĢĪâĢĪ": 8167,
      "ĠKelly": 8168,
      "COM": 8169,
      "mary": 8170,
      "tic": 8171,
      "inder": 8172,
      "orado": 8173,
      "Ġpil": 8174,
      "ĠSpe": 8175,
      "ĠBB": 8176,
      "ĠDuring": 8177,
      "Ġunions": 8178,
      "ĠVol": 8179,
      "assy": 8180,
      "ofi": 8181,
      "Ġproducing": 8182,
      "Ġexploration": 8183,
      "ĠPoland": 8184,
      "Ġaccepted": 8185,
      "Ġnarrow": 8186,
      "ĠJoseph": 8187,
      "Ġsolicitation": 8188,
      "ywood": 8189,
      "Ġeyes": 8190,
      "Ġgun": 8191,
      "adium": 8192,
      "Ġstyle": 8193,
      "ura": 8194,
      "olic": 8195,
      "ĠChange": 8196,
      "ellect": 8197,
      "Ġautonom": 8198,
      "Ġfields": 8199,
      "Ġaudience": 8200,
      "Ġmotiv": 8201,
      "service": 8202,
      "Ġresolve": 8203,
      "Me": 8204,
      "dog": 8205,
      "gian": 8206,
      "heim": 8207,
      "Ġpetro": 8208,
      "Ġfan": 8209,
      "Ġhum": 8210,
      "ĠWay": 8211,
      "ĠNord": 8212,
      "ĠHal": 8213,
      "Ġworker": 8214,
      "Ġbranch": 8215,
      "Ġteac": 8216,
      "medium": 8217,
      "ĠBrian": 8218,
      "ĠMaria": 8219,
      "Ġreleases": 8220,
      "Ġrevolution": 8221,
      "ription": 8222,
      "ĠStandard": 8223,
      "Ġterrible": 8224,
      "Ġconstantly": 8225,
      "ĠEquity": 8226,
      "Ġincredible": 8227,
      "ĠSubscribe": 8228,
      "ĠDutch": 8229,
      "quality": 8230,
      "ĠHave": 8231,
      "Ġarbit": 8232,
      "2021": 8233,
      "Ġearth": 8234,
      "group": 8235,
      "web": 8236,
      "Ġblame": 8237,
      "Ġfactory": 8238,
      "ĠRev": 8239,
      "ACE": 8240,
      "what": 8241,
      "Ġoccas": 8242,
      "ĠUNDER": 8243,
      "Ġfavorite": 8244,
      "Ġmanufacturer": 8245,
      "Ġderiv": 8246,
      "Ġcategory": 8247,
      "Ġpowers": 8248,
      "ĠRoyal": 8249,
      "ĠSupreme": 8250,
      "IB": 8251,
      "MI": 8252,
      "ba": 8253,
      "pre": 8254,
      "Ġcited": 8255,
      "ĠBud": 8256,
      "ĠFred": 8257,
      "ĠUkrain": 8258,
      "Ġves": 8259,
      "ghi": 8260,
      "Ġseeks": 8261,
      "Ġdealing": 8262,
      "ĠZeal": 8263,
      "ĠSeoul": 8264,
      "Ġautomotive": 8265,
      "ĠEconomics": 8266,
      "Ġoccup": 8267,
      "IJING": 8268,
      "Reg": 8269,
      "burg": 8270,
      "Ġsick": 8271,
      "Ġtoll": 8272,
      "ĠMs": 8273,
      "Ġassemb": 8274,
      "Ġrall": 8275,
      "Ġexpend": 8276,
      "Ġcancell": 8277,
      "Ġsupplier": 8278,
      "Ġstartup": 8279,
      "Ġsignal": 8280,
      "Ġraises": 8281,
      "Ġpolicymakers": 8282,
      "ĠColumb": 8283,
      "Ġprepare": 8284,
      "friend": 8285,
      "Ġwarm": 8286,
      "ĠCTR": 8287,
      "Ġconven": 8288,
      "ĠNFT": 8289,
      "Ġworries": 8290,
      "Ġprin": 8291,
      "agues": 8292,
      "Ġmatches": 8293,
      "Ġevol": 8294,
      "hereum": 8295,
      "Ġmembership": 8296,
      "AGE": 8297,
      "Ġchampions": 8298,
      "Amazon": 8299,
      "Ġtherapy": 8300,
      "Ġsensitive": 8301,
      "MAN": 8302,
      "rust": 8303,
      "ws": 8304,
      "Ġborn": 8305,
      "Ġdynam": 8306,
      "ĠId": 8307,
      "ĠOk": 8308,
      "Ġresource": 8309,
      "arget": 8310,
      "Ġopio": 8311,
      "Ġcommented": 8312,
      "Ġclasses": 8313,
      "ĠScot": 8314,
      "Ġdeaths": 8315,
      "Ġcooperation": 8316,
      "Ġjourney": 8317,
      "QQ": 8318,
      "cost": 8319,
      "Ġdumb": 8320,
      "etime": 8321,
      "ĠPan": 8322,
      "Ġshots": 8323,
      "umin": 8324,
      "ĠLab": 8325,
      "Ġunexpected": 8326,
      "Ġapplied": 8327,
      "angible": 8328,
      "Ġflight": 8329,
      "Ġsurr": 8330,
      "Ġpresidency": 8331,
      "ĠDECEMBER": 8332,
      "ĠPalestinians": 8333,
      "Ġcomplicated": 8334,
      "Ġcommunication": 8335,
      "European": 8336,
      "350": 8337,
      "JUST": 8338,
      "Ġ).": 8339,
      "atar": 8340,
      "Ġfro": 8341,
      "edit": 8342,
      "Ġdie": 8343,
      "arett": 8344,
      "izz": 8345,
      "Ġaccord": 8346,
      "Ġstruggle": 8347,
      "print": 8348,
      "ĠRevenue": 8349,
      "ĠDavis": 8350,
      "anna": 8351,
      "Ġtracking": 8352,
      "Ġindependence": 8353,
      "arried": 8354,
      "Ġspreads": 8355,
      "Ġappreciation": 8356,
      "Ġguaranteed": 8357,
      "Ġconservatives": 8358,
      "ĠKingdom": 8359,
      "Ġlifted": 8360,
      "Ġcongressional": 8361,
      "imgur": 8362,
      "Ġfans": 8363,
      "ĠTER": 8364,
      "owell": 8365,
      "ĠRoman": 8366,
      "ĠFOUR": 8367,
      "ĠTheresa": 8368,
      "Ġresume": 8369,
      "Ġbillionaire": 8370,
      "ternal": 8371,
      "Ġsellers": 8372,
      "Ġinspect": 8373,
      "Ġopposite": 8374,
      "clays": 8375,
      "Ġsteep": 8376,
      "Ġtrusted": 8377,
      "ĠInterest": 8378,
      "ĠIndustries": 8379,
      "ĠPhilip": 8380,
      "ĠRetail": 8381,
      "ĸĪâ": 8382,
      "ĠZealand": 8383,
      "\"),": 8384,
      "Gold": 8385,
      "Japan": 8386,
      "John": 8387,
      "Ke": 8388,
      "xy": 8389,
      "hered": 8390,
      "Ġhusband": 8391,
      "ĠDACA": 8392,
      "ifts": 8393,
      "Ġspir": 8394,
      "ĠChild": 8395,
      "iana": 8396,
      "Ġfeat": 8397,
      "ersonally": 8398,
      "Ġannounces": 8399,
      "URT": 8400,
      "ĠProt": 8401,
      "Ġ:)": 8402,
      "ĠToday": 8403,
      "Ġoptimism": 8404,
      "Ġvacc": 8405,
      "Ġinventory": 8406,
      "Ġminority": 8407,
      "Ġpreparing": 8408,
      "Ġgambling": 8409,
      "Ġmonitoring": 8410,
      "ĠCTRL": 8411,
      "Ag": 8412,
      "TL": 8413,
      "erry": 8414,
      "ĠSon": 8415,
      "ĠTRAN": 8416,
      "illy": 8417,
      "ĠHall": 8418,
      "ibilities": 8419,
      "duc": 8420,
      "Ġowning": 8421,
      "ebt": 8422,
      "Ġbroken": 8423,
      "Ġelected": 8424,
      "Ġdifferences": 8425,
      "Ġimportance": 8426,
      "Ġsustained": 8427,
      "ĠMedicaid": 8428,
      "OXX": 8429,
      "rig": 8430,
      "uant": 8431,
      "Ġpending": 8432,
      "llor": 8433,
      "Ġforth": 8434,
      "ĠNAT": 8435,
      "uster": 8436,
      "ĠJason": 8437,
      "Ġunve": 8438,
      "Ġupv": 8439,
      "ĠKn": 8440,
      "Ġrepurch": 8441,
      "2016": 8442,
      "Ġannually": 8443,
      "Ġexplos": 8444,
      "Ġmiscon": 8445,
      "Ġhospitals": 8446,
      "ĠBrazilian": 8447,
      "Ġinventories": 8448,
      "ĠNorway": 8449,
      "ĠCOMMON": 8450,
      "Ġâĸ²": 8451,
      "ĠPharmaceuticals": 8452,
      "Ġslipped": 8453,
      "GME": 8454,
      "Rec": 8455,
      "Windows": 8456,
      "itol": 8457,
      "oug": 8458,
      "around": 8459,
      "Ġgym": 8460,
      "ads": 8461,
      "ĠPA": 8462,
      "ĠWood": 8463,
      "Ġcomprom": 8464,
      "ĠLyn": 8465,
      "Ġuniversity": 8466,
      "Ġlease": 8467,
      "ansas": 8468,
      "Ġimplic": 8469,
      "Ġinsane": 8470,
      "Still": 8471,
      "Ġindicated": 8472,
      "Ġcomputers": 8473,
      "working": 8474,
      "Ġoptimistic": 8475,
      "AVE": 8476,
      "Ġsuddenly": 8477,
      "Ġobtained": 8478,
      "CR": 8479,
      "uine": 8480,
      "ĠSum": 8481,
      "Ġric": 8482,
      "ĠDes": 8483,
      "ocol": 8484,
      "ĠHait": 8485,
      "abled": 8486,
      "Ġusual": 8487,
      "Ġsecured": 8488,
      "Ġdrag": 8489,
      "Ġcarrier": 8490,
      "Analysts": 8491,
      "ĠInvestments": 8492,
      "ĠSpanish": 8493,
      "Ġconsideration": 8494,
      "Ġdiverse": 8495,
      "RANKF": 8496,
      "Ġcomparison": 8497,
      "American": 8498,
      "ĠHouston": 8499,
      "ĠLOSS": 8500,
      "RANKFURT": 8501,
      "Co": 8502,
      "Ġinher": 8503,
      "Ġduty": 8504,
      "ĠCub": 8505,
      "illa": 8506,
      "ĠMason": 8507,
      "ils": 8508,
      "ĠDave": 8509,
      "Ġalert": 8510,
      "Ġcontest": 8511,
      "Ġministers": 8512,
      "Ġsurve": 8513,
      "aires": 8514,
      "Ġprocesses": 8515,
      "Ġimprovements": 8516,
      "Ġfucked": 8517,
      "Ġexclusive": 8518,
      "Ġaccusations": 8519,
      "ĠINVESTMENT": 8520,
      "Brien": 8521,
      "SEC": 8522,
      "fers": 8523,
      "Ġgreed": 8524,
      "acle": 8525,
      "ĠMag": 8526,
      "ĠEL": 8527,
      "ĠLA": 8528,
      "ĠJr": 8529,
      "Ġadult": 8530,
      "ĠKey": 8531,
      "ĠChamp": 8532,
      "Ġbets": 8533,
      "Ġcollaps": 8534,
      "Ġproperly": 8535,
      "Ġpurchasing": 8536,
      "Ġski": 8537,
      "Ġoversee": 8538,
      "Ġcreative": 8539,
      "arbor": 8540,
      "Ġconducted": 8541,
      "front": 8542,
      "ĠCMD": 8543,
      "ĠPetroleum": 8544,
      "ĢâłĢâł": 8545,
      "Ġneighborhood": 8546,
      "ĠEmmanuel": 8547,
      "CED": 8548,
      "NERS": 8549,
      "VEL": 8550,
      "ï¸": 8551,
      "itc": 8552,
      "Ġease": 8553,
      "ĠBio": 8554,
      "Ġrural": 8555,
      "Ġaccompany": 8556,
      "Ġresort": 8557,
      "Ġloyal": 8558,
      "ĠPalestinian": 8559,
      "Ġâĸ¶": 8560,
      "ĠNikkei": 8561,
      "Ġreliable": 8562,
      "ĠQualcomm": 8563,
      "ĠDIVID": 8564,
      "Att": 8565,
      "look": 8566,
      "zen": 8567,
      "ĠCurrent": 8568,
      "ĠFBI": 8569,
      "Ġ47": 8570,
      "azine": 8571,
      "Ġheading": 8572,
      "icipal": 8573,
      "Ġconstitute": 8574,
      "Ġdelays": 8575,
      "ĠPreferred": 8576,
      "Ġera": 8577,
      "Ġtroops": 8578,
      "ï¸ı": 8579,
      "*.": 8580,
      "212": 8581,
      "bal": 8582,
      "zi": 8583,
      "Ġdaughter": 8584,
      "Ġhub": 8585,
      "Ġeg": 8586,
      "Ġneutral": 8587,
      "ĠDigital": 8588,
      "ipart": 8589,
      "ĠYOU": 8590,
      "Ġconsensus": 8591,
      "awa": 8592,
      "Ġrises": 8593,
      "Those": 8594,
      "inding": 8595,
      "Ġinstance": 8596,
      "Ġcreates": 8597,
      "Ġprivately": 8598,
      "Ġjoins": 8599,
      "Ġhopefully": 8600,
      "Ġblocked": 8601,
      "Ġboat": 8602,
      "Ġprotesters": 8603,
      "Ġhotels": 8604,
      "Ġinitiative": 8605,
      "Ġneighb": 8606,
      "Ġrenewable": 8607,
      "Ġdelayed": 8608,
      "ĠPyongyang": 8609,
      "Ste": 8610,
      "har": 8611,
      "Ġape": 8612,
      "Ġfulf": 8613,
      "ishes": 8614,
      "igarett": 8615,
      "gered": 8616,
      "ĠNext": 8617,
      "Ġresolution": 8618,
      "ails": 8619,
      "Ġ41": 8620,
      "Ġ46": 8621,
      "Ġsecretary": 8622,
      "ITIES": 8623,
      "Ġemissions": 8624,
      "Ġpassive": 8625,
      "Ġpresented": 8626,
      "Ġinvestigating": 8627,
      "Ġrepeat": 8628,
      "Ġlicense": 8629,
      "ĠWarren": 8630,
      "Its": 8631,
      "LIC": 8632,
      "ses": 8633,
      "Ġsy": 8634,
      "Ġmal": 8635,
      "ĠICO": 8636,
      "ĠIRS": 8637,
      "ĠCuts": 8638,
      "igible": 8639,
      "Ġrain": 8640,
      "uming": 8641,
      "ĠHel": 8642,
      "ĠLew": 8643,
      "Ġintellect": 8644,
      "ockchain": 8645,
      "Ġimposed": 8646,
      "ATELY": 8647,
      "erto": 8648,
      "ĠShow": 8649,
      "phas": 8650,
      "Ġexplained": 8651,
      "ĠAction": 8652,
      "Ġparticipation": 8653,
      "ĠPolicy": 8654,
      "Ġcharity": 8655,
      "Ġlogo": 8656,
      "Ġreverse": 8657,
      "Ġridicul": 8658,
      "Ġwireless": 8659,
      "Ġartificial": 8660,
      "ocracy": 8661,
      "held": 8662,
      "owed": 8663,
      "ĠWater": 8664,
      "eless": 8665,
      "Ġunderst": 8666,
      "Ġmedium": 8667,
      "ICS": 8668,
      "Ġphil": 8669,
      "Ġphoto": 8670,
      "annels": 8671,
      "Ġdrove": 8672,
      "appy": 8673,
      "ĠBlue": 8674,
      "Ġstaying": 8675,
      "finance": 8676,
      "Ġargued": 8677,
      "inois": 8678,
      "Ġpartnerships": 8679,
      "ĠEveryone": 8680,
      "Ġsuspended": 8681,
      "Ġbonus": 8682,
      "Ġprompted": 8683,
      "âĢĬâĢĬ": 8684,
      "PARIS": 8685,
      "Ġcoffee": 8686,
      "##": 8687,
      "Of": 8688,
      "Ġmill": 8689,
      "lle": 8690,
      "stat": 8691,
      "ĠWhe": 8692,
      "occer": 8693,
      "osystem": 8694,
      "ĠLand": 8695,
      "reek": 8696,
      "ĠAnt": 8697,
      "ĠREG": 8698,
      "URREN": 8699,
      "Ġdistributed": 8700,
      "Ġupdated": 8701,
      "ĠAirlines": 8702,
      "Ġthrilled": 8703,
      "Ġsuperv": 8704,
      "Two": 8705,
      "Ġbul": 8706,
      "Ġrecon": 8707,
      "ithium": 8708,
      "ounced": 8709,
      "ĠHa": 8710,
      "ĠStud": 8711,
      "ĠYoung": 8712,
      "Ġtakeover": 8713,
      "ĠWealth": 8714,
      "ĠAndre": 8715,
      "Ġreceiving": 8716,
      "Ġengagement": 8717,
      "Ġdeclining": 8718,
      "Ġhype": 8719,
      "ĠAngela": 8720,
      "Ġobjectives": 8721,
      "Ġmedicine": 8722,
      "--------": 8723,
      "ĠDIVIDEND": 8724,
      "App": 8725,
      "bury": 8726,
      "file": 8727,
      "ĠEll": 8728,
      "earing": 8729,
      "Ġexempt": 8730,
      "Ġadults": 8731,
      "ĠKy": 8732,
      "dering": 8733,
      "ĠVentures": 8734,
      "Ġ58": 8735,
      "Ġchecks": 8736,
      "Ġcollection": 8737,
      "Ġmemo": 8738,
      "reamers": 8739,
      "ĠDev": 8740,
      "offs": 8741,
      "ĠADJUST": 8742,
      "Ġproposals": 8743,
      "ĠAccording": 8744,
      "hua": 8745,
      "ĠAttorney": 8746,
      "omsonreuters": 8747,
      "Dr": 8748,
      "HL": 8749,
      "ei": 8750,
      "only": 8751,
      "Ġsad": 8752,
      "Ġsun": 8753,
      "Ġfurn": 8754,
      "amin": 8755,
      "ĠRi": 8756,
      "ocal": 8757,
      "ĠGulf": 8758,
      "Ġcovers": 8759,
      "Ġstrict": 8760,
      "Ġprobe": 8761,
      "OMO": 8762,
      "Ġimpacted": 8763,
      "apping": 8764,
      "Ġinvolving": 8765,
      "Ġarticles": 8766,
      "ĠQuote": 8767,
      "ĠConsumer": 8768,
      "Ġgeograp": 8769,
      "Ġacknowled": 8770,
      "DF": 8771,
      "Great": 8772,
      "__": 8773,
      "code": 8774,
      "thomsonreuters": 8775,
      "ĠHor": 8776,
      "Ġtradem": 8777,
      "ĠCarl": 8778,
      "ĠGolden": 8779,
      "ĠProducts": 8780,
      "($": 8781,
      "En": 8782,
      "cash": 8783,
      "lu": 8784,
      "rec": 8785,
      "ĠSky": 8786,
      "Ġshape": 8787,
      "allas": 8788,
      "Ġchoices": 8789,
      "Ġimpressive": 8790,
      "Ġdiss": 8791,
      "Ġcontinu": 8792,
      "Ġplane": 8793,
      "Ġdepreci": 8794,
      "intend": 8795,
      "ATIONAL": 8796,
      "Ġcriticized": 8797,
      "Ġperfectly": 8798,
      "ĠMalays": 8799,
      "Ġaccurate": 8800,
      "don": 8801,
      "zing": 8802,
      "Ġcast": 8803,
      "ĠIBM": 8804,
      "ĠDub": 8805,
      "ĠWynn": 8806,
      "Ġcompr": 8807,
      "Ġtrick": 8808,
      "ibaba": 8809,
      "ousing": 8810,
      "Ġ63": 8811,
      "Ġdeclines": 8812,
      "Ġrecovered": 8813,
      "ahu": 8814,
      "Ġextension": 8815,
      "ðŁļĢðŁļĢðŁļĢðŁļĢ": 8816,
      "amsung": 8817,
      "Ġallocation": 8818,
      "Ġscrut": 8819,
      "ĠFIRST": 8820,
      "Ġtremend": 8821,
      ".'": 8822,
      "MB": 8823,
      "Tax": 8824,
      "aa": 8825,
      "Ġwitness": 8826,
      "aron": 8827,
      "isit": 8828,
      "ĠIV": 8829,
      "lder": 8830,
      "ĠMarg": 8831,
      "elve": 8832,
      "ubb": 8833,
      "Ġ85": 8834,
      "Ġoperators": 8835,
      "ĠAlthough": 8836,
      "Ġstayed": 8837,
      "ĠNotes": 8838,
      "Ġtelecom": 8839,
      "Ġalongside": 8840,
      "Ġbullshit": 8841,
      "Ġupper": 8842,
      "izona": 8843,
      "ĠPRODUCTION": 8844,
      "Ġbeliefs": 8845,
      "Ġbarely": 8846,
      "watch": 8847,
      "reets": 8848,
      "Ġmarried": 8849,
      "Ġtob": 8850,
      "Ġformed": 8851,
      "ĠBU": 8852,
      "Ġweird": 8853,
      "ĠEQU": 8854,
      "astics": 8855,
      "Ġexposed": 8856,
      "Ġpartially": 8857,
      "Ġtaxable": 8858,
      "Ġroyal": 8859,
      "Ġfunded": 8860,
      "Ġfoundation": 8861,
      "ĠĠĠĠĠ": 8862,
      "Ġarrived": 8863,
      "Ġhouseholds": 8864,
      "Ġjournalists": 8865,
      "ĠIllinois": 8866,
      "Ġsatisf": 8867,
      "Ġconsequences": 8868,
      "ĠAuthority": 8869,
      "Car": 8870,
      "UAL": 8871,
      "vo": 8872,
      "orith": 8873,
      "Ġla": 8874,
      "ira": 8875,
      "ĠLabor": 8876,
      "Ġads": 8877,
      "comed": 8878,
      "conference": 8879,
      "ĠVAL": 8880,
      "Ġaccumul": 8881,
      "odies": 8882,
      "Ġcaps": 8883,
      "Ġ95": 8884,
      "eban": 8885,
      "should": 8886,
      "ĠAMC": 8887,
      "commod": 8888,
      "Ġprofile": 8889,
      "ventional": 8890,
      "ĠBarack": 8891,
      "Ġopinions": 8892,
      "EK": 8893,
      "EP": 8894,
      "SC": 8895,
      "cor": 8896,
      "health": 8897,
      "anth": 8898,
      "Ġgra": 8899,
      "mental": 8900,
      "hingya": 8901,
      "Ġworkforce": 8902,
      "Ġelectronic": 8903,
      "ĠAirbus": 8904,
      "Ġcurve": 8905,
      "ĠMOASS": 8906,
      "Earlier": 8907,
      "ipartisan": 8908,
      "Ġtobacco": 8909,
      "??": 8910,
      "Man": 8911,
      "Med": 8912,
      "ĠTs": 8913,
      "ĠBN": 8914,
      "ĠEsp": 8915,
      "Ġdeg": 8916,
      "Ġpartly": 8917,
      "Ġdisaster": 8918,
      "Ġaffordable": 8919,
      "economics": 8920,
      "ðŁĮĳðŁĮĳ": 8921,
      "ðŁĳĲ": 8922,
      "Ġecosystem": 8923,
      "mal": 8924,
      "mund": 8925,
      "ona": 8926,
      "Ġowe": 8927,
      "Ġanim": 8928,
      "Ġreinvest": 8929,
      "ilateral": 8930,
      "ĠDj": 8931,
      "ĠWomen": 8932,
      "Ġsea": 8933,
      "Ġchances": 8934,
      "Ġ53": 8935,
      "2020": 8936,
      "Ġregime": 8937,
      "ILITY": 8938,
      "Ġgenuine": 8939,
      "Ġgotten": 8940,
      "Ġtalked": 8941,
      "Ġrecommendations": 8942,
      "Ġinvestigations": 8943,
      "Ġburden": 8944,
      "Ġlandlord": 8945,
      "Ġdiesel": 8946,
      "YD": 8947,
      "bn": 8948,
      "chers": 8949,
      "fess": 8950,
      "mm": 8951,
      "aters": 8952,
      "Ġbreat": 8953,
      "Ġgaming": 8954,
      "ĠMillion": 8955,
      "mented": 8956,
      "ĠDIS": 8957,
      "Ġcompare": 8958,
      "ĠHard": 8959,
      "aka": 8960,
      "Ġchannels": 8961,
      "IONS": 8962,
      "Ġcapable": 8963,
      "Ġ2005": 8964,
      "Ġedged": 8965,
      "ĠINCL": 8966,
      "Ġexamples": 8967,
      "finals": 8968,
      "Ġrecommended": 8969,
      "Ġcharts": 8970,
      "Ġlogistics": 8971,
      "performing": 8972,
      "Ġessential": 8973,
      "Ġconcluded": 8974,
      "Ġlegislative": 8975,
      "ĠSpecial": 8976,
      "Ġfaith": 8977,
      "OUT": 8978,
      "Ġ;": 8979,
      "inance": 8980,
      "Ġcabinet": 8981,
      "rov": 8982,
      "Ġcomponents": 8983,
      "Ġunrest": 8984,
      "ĠChance": 8985,
      "ĠChase": 8986,
      "Ġ74": 8987,
      "Ġopens": 8988,
      "Ġchecking": 8989,
      "Health": 8990,
      "Ġprojections": 8991,
      "Ġrecognize": 8992,
      "ĠDoes": 8993,
      "Ġtouched": 8994,
      "Ġwelcomed": 8995,
      "Ġvacation": 8996,
      "prietary": 8997,
      "anguard": 8998,
      "Ġmigrants": 8999,
      "KYO": 9000,
      "ĠFILING": 9001,
      "ĠTRANS": 9002,
      "EU": 9003,
      "Editing": 9004,
      "lie": 9005,
      "rage": 9006,
      "uated": 9007,
      "reens": 9008,
      "atal": 9009,
      "Ġlaid": 9010,
      "adi": 9011,
      "ĠFULL": 9012,
      "cho": 9013,
      "herlands": 9014,
      "ĠNic": 9015,
      "Ġsoft": 9016,
      "Ġpaycheck": 9017,
      "Ġdownturn": 9018,
      "ĠIsland": 9019,
      "Ġtotaled": 9020,
      "espread": 9021,
      "BEIJING": 9022,
      "Ġignore": 9023,
      "Ġdozen": 9024,
      "Non": 9025,
      "bu": 9026,
      "buy": 9027,
      "fs": 9028,
      "Ġlag": 9029,
      "ĠTRA": 9030,
      "ĠCR": 9031,
      "imm": 9032,
      "ulate": 9033,
      "ĠLarry": 9034,
      "Ġbetting": 9035,
      "phy": 9036,
      "arency": 9037,
      "TAIN": 9038,
      "Ġdenies": 9039,
      "Ġsettle": 9040,
      "Ġwindow": 9041,
      "OWN": 9042,
      "ĠRohingya": 9043,
      "Canada": 9044,
      "Ġradio": 9045,
      "Ġpermanent": 9046,
      ".*": 9047,
      "wing": 9048,
      "ution": 9049,
      "ĠEver": 9050,
      "umar": 9051,
      "ĠJackson": 9052,
      "Ġ56": 9053,
      "Ġengage": 9054,
      "cious": 9055,
      "Ġswap": 9056,
      "Ġarrange": 9057,
      "ĠHollywood": 9058,
      "Ġodds": 9059,
      "Ġgrocery": 9060,
      "ĠJPMorgan": 9061,
      "Ġintellectual": 9062,
      "ĠINCLUD": 9063,
      "FE": 9064,
      "Read": 9065,
      "iences": 9066,
      "Ġtennis": 9067,
      "rete": 9068,
      "ati": 9069,
      "Ġcrop": 9070,
      "Ġbipartisan": 9071,
      "ighed": 9072,
      "ationally": 9073,
      "oline": 9074,
      "ĠJO": 9075,
      "ĠJo": 9076,
      "rence": 9077,
      "ĠGrand": 9078,
      "ĠSpot": 9079,
      "Once": 9080,
      "Ġsuggesting": 9081,
      "Ġenjoyed": 9082,
      "ĠUPDATE": 9083,
      "driven": 9084,
      "Â®,": 9085,
      "ĠRoad": 9086,
      "ĠCitadel": 9087,
      "Ġrocket": 9088,
      "Ġoccurred": 9089,
      "ĠVietnam": 9090,
      "Ġaccompanying": 9091,
      "bra": 9092,
      "del": 9093,
      "oms": 9094,
      "star": 9095,
      "ĠTob": 9096,
      "ĠDid": 9097,
      "Ġunknown": 9098,
      "Ġaccommod": 9099,
      "Ġsupports": 9100,
      "Ġemphas": 9101,
      "ĠPros": 9102,
      "Hey": 9103,
      "value": 9104,
      "ĠDeputy": 9105,
      "Ġautomatically": 9106,
      "Ġtypical": 9107,
      "Ġimplementation": 9108,
      "Ġcolleagues": 9109,
      "877": 9110,
      "Ġfilled": 9111,
      "Ġmob": 9112,
      "igate": 9113,
      "ĠMON": 9114,
      "ĠEduc": 9115,
      "ĠNON": 9116,
      "ighth": 9117,
      "exp": 9118,
      "Ġ700": 9119,
      "iked": 9120,
      "Ġmemory": 9121,
      "including": 9122,
      "retion": 9123,
      "IRECT": 9124,
      "Ġpriorities": 9125,
      "Ġrebounds": 9126,
      "Ġpanic": 9127,
      "Ġconvin": 9128,
      "arbucks": 9129,
      "ĠOperations": 9130,
      "ĠStrateg": 9131,
      "adelph": 9132,
      "achelor": 9133,
      "ĠLeader": 9134,
      "Ġfranchise": 9135,
      "ĠDraghi": 9136,
      "ĠFOURTH": 9137,
      "Ne": 9138,
      "life": 9139,
      "Ġtoler": 9140,
      "ĠShen": 9141,
      "Ġ110": 9142,
      "ĠHS": 9143,
      "Ġjet": 9144,
      "Ġarmed": 9145,
      "ĠINTO": 9146,
      "Ġfluct": 9147,
      "orporated": 9148,
      "Ġcollective": 9149,
      "RIB": 9150,
      "Ġsky": 9151,
      "Ġdelivers": 9152,
      "adesh": 9153,
      "Ġtrigger": 9154,
      "Ġveteran": 9155,
      "ĠGeorgia": 9156,
      "Ġceremony": 9157,
      "ĠADJUSTED": 9158,
      "Ass": 9159,
      "Part": 9160,
      "TY": 9161,
      "Ġmaster": 9162,
      "ĠUBS": 9163,
      "ĠHope": 9164,
      "ĠLTD": 9165,
      "Ġamended": 9166,
      "grade": 9167,
      "Ġdesk": 9168,
      "ĠShort": 9169,
      "Ġvisiting": 9170,
      "Ġexplan": 9171,
      "Ġpremier": 9172,
      "ĠColorado": 9173,
      "ĠWolff": 9174,
      "ĠAtlanta": 9175,
      "Ġshooting": 9176,
      "ISCAL": 9177,
      "Because": 9178,
      "count": 9179,
      "Ġtail": 9180,
      "Ġpes": 9181,
      "lla": 9182,
      "Ġrewards": 9183,
      "Ġgaining": 9184,
      "ĠSERV": 9185,
      "ilton": 9186,
      "search": 9187,
      "early": 9188,
      "Ġshale": 9189,
      "ĠNYSE": 9190,
      "ockey": 9191,
      "Ġunus": 9192,
      "Ġeverybody": 9193,
      "okovic": 9194,
      "Ġdistrict": 9195,
      "ACH": 9196,
      "Ġmultip": 9197,
      "Ġseemed": 9198,
      "ernand": 9199,
      "ĠBarclays": 9200,
      "spec": 9201,
      "Ġurban": 9202,
      "Ġrescue": 9203,
      "Ġmechanism": 9204,
      "adelphia": 9205,
      "Che": 9206,
      "bably": 9207,
      "times": 9208,
      "inh": 9209,
      "iti": 9210,
      "Ġyouth": 9211,
      "through": 9212,
      "ĠDiv": 9213,
      "ĠHK": 9214,
      "Ġseats": 9215,
      "Ġpreferred": 9216,
      "Ġmainstream": 9217,
      "government": 9218,
      "Ġpredic": 9219,
      "Ġdrops": 9220,
      "Ġresponded": 9221,
      "Ġhoped": 9222,
      "Ġchallenging": 9223,
      "ĠDEAL": 9224,
      "Ġtanker": 9225,
      "ĠPutin": 9226,
      "Ġdegrees": 9227,
      "Ġconvinced": 9228,
      "LIM": 9229,
      "Mart": 9230,
      "xx": 9231,
      "Ġinject": 9232,
      "ila": 9233,
      "Ġproprietary": 9234,
      "ĠDelta": 9235,
      "ĠStill": 9236,
      "Ġ1990": 9237,
      "Ġbankers": 9238,
      "ĠAdd": 9239,
      "OLOG": 9240,
      "Ġprominent": 9241,
      "ĠTransport": 9242,
      "Ġcovering": 9243,
      "Ġtoug": 9244,
      "Ġsurvive": 9245,
      "Ġwidespread": 9246,
      "ĠGraham": 9247,
      "onestly": 9248,
      "Ġalgorith": 9249,
      "youtube": 9250,
      "AA": 9251,
      "Ms": 9252,
      "Pacific": 9253,
      "||": 9254,
      "Ġband": 9255,
      "Ġdates": 9256,
      "ĠIP": 9257,
      "ĠTech": 9258,
      "Ġstreets": 9259,
      "uration": 9260,
      "ĠMah": 9261,
      "ĠDi": 9262,
      "ĠDallas": 9263,
      "Ġ54": 9264,
      "Ġbright": 9265,
      "Ġfinancials": 9266,
      "Ġinsights": 9267,
      "Ġdeter": 9268,
      "ĠCommunity": 9269,
      "Ġcourts": 9270,
      "ĠAfrin": 9271,
[...]
